{"<|endoftext|>":0,"<eol>":1,"<STR_LIT>":2,"<NUM_LIT>":3,"<STR_LIT:id>":4,"<STR_LIT:name>":5,"<STR_LIT:type>":6,"<STR_LIT:status>":7,"<STR_LIT:title>":8,"<STR_LIT:required>":9,"<STR_LIT:/>":10,"<STR_LIT:email>":11,"<STR_LIT:=>":12,"<STR_LIT:message>":13,"<STR_LIT:U+0020>":14,"<STR_LIT:user_id>":15,"<STR_LIT:data>":16,"<STR_LIT:success>":17,"<STR_LIT:class>":18,"<STR_LIT:1>":19,"<STR_LIT:password>":20,"<STR_LIT:value>":21,"<STR_LIT:0>":22,"<STR_LIT:description>":23,"<STR_LIT:code>":24,"<STR_LIT:label>":25,"<STR_LIT:created_at>":26,"<STR_LIT:error>":27,"<STR_LIT:U+002C>":28,"<STR_LIT:user>":29,"<STR_LIT:.>":30,"<STR_LIT:username>":31,"<STR_LIT:'>":32,"<STR_LIT:%>":33,"<STR_LIT:url>":34,"<STR_LIT:text>":35,"<STR_LIT:updated_at>":36,"<STR_LIT:string>":37,"<STR_LIT:->":38,"<STR_LIT:content>":39,"<STR_LIT:image>":40,"<STR_LIT:msg>":41,"<STR_LIT:index>":42,"<STR_LIT:desc>":43,"<STR_LIT:nombre>":44,"<STR_LIT:Y-m-dU+0020H:i:s>":45,"<STR_LIT:default>":46,"<STR_LIT:Y-m-d>":47,"<STR_LIT:users>":48,"<STR_LIT:admin>":49,"<STR_LIT:>>":50,"<STR_LIT:uses>":51,"<STR_LIT:action>":52,"<STR_LIT:slug>":53,"<STR_LIT:price>":54,"<STR_LIT:date>":55,"<STR_LIT:as>":56,"<STR_LIT:active>":57,"<STR_LIT:*>":58,"<STR_LIT:page>":59,"<STR_LIT:2>":60,"<STR_LIT:options>":61,"<STR_LIT:_>":62,"<STR_LIT:file>":63,"<STR_LIT:BASEPATH>":64,"<STR_LIT:login>":65,"<STR_LIT:auth>":66,"<STR_LIT:NoU+0020directU+0020scriptU+0020accessU+0020allowed>":67,"<STR_LIT:category>":68,"<STR_LIT:phone>":69,"<STR_LIT:key>":70,"<STR_LIT:</div>>":71,"<STR_LIT:address>":72,"<STR_LIT::>":73,"<STR_LIT:app>":74,"<STR_LIT:</td>>":75,"<STR_LIT:'U+002C'>":76,"<STR_LIT:like>":77,"<STR_LIT:U+002CU+0020>":78,"<STR_LIT:Y>":79,"<STR_LIT:)>":80,"<STR_LIT:POST>":81,"<STR_LIT:3>":82,"<STR_LIT:order>":83,"<STR_LIT:post>":84,"<STR_LIT:foo>":85,"<STR_LIT:a>":86,"<STR_LIT:ID>":87,"<STR_LIT:path>":88,"<STR_LIT:model>":89,"<STR_LIT:GET>":90,"<STR_LIT:level>":91,"<STR_LIT:/..>":92,"<STR_LIT:\">":93,"<STR_LIT:nama>":94,"<STR_LIT:token>":95,"<STR_LIT:amount>":96,"<STR_LIT:city>":97,"<STR_LIT:form>":98,"<STR_LIT:html>":99,"<STR_LIT:category_id>":100,"<STR_LIT:result>":101,"<STR_LIT:update>":102,"<STR_LIT:max>":103,"<STR_LIT:icon>":104,"<STR_LIT:size>":105,"<STR_LIT:edit>":106,"<STR_LIT:delete>":107,"<STR_LIT:\">>":108,"<STR_LIT:home>":109,"<STR_LIT:role>":110,"<STR_LIT:true>":111,"<STR_LIT:body>":112,"<STR_LIT:selected>":113,"<STR_LIT:total>":114,"<STR_LIT:C>":115,"<STR_LIT:integer>":116,"<STR_LIT:field>":117,"<STR_LIT:create>":118,"<STR_LIT:info>":119,"<STR_LIT:uid>":120,"<STR_LIT:search>":121,"<STR_LIT:product_id>":122,"<STR_LIT:DESC>":123,"<STR_LIT:parent_id>":124,"<STR_LIT:test>":125,"<STR_LIT:view>":126,"<STR_LIT:4>":127,"<STR_LIT:method>":128,"<STR_LIT:state>":129,"<STR_LIT:prefix>":130,"<STR_LIT:query>":131,"<STR_LIT:state_id>":132,"<STR_LIT:list>":133,"<STR_LIT:link>":134,"<STR_LIT:asc>":135,"<STR_LIT:version>":136,"<STR_LIT:number>":137,"<STR_LIT:<td>>":138,"<STR_LIT:L>":139,"<STR_LIT:categories>":140,"<STR_LIT:width>":141,"<STR_LIT:'U+002CU+0020'>":142,"<STR_LIT:<br>>":143,"<STR_LIT:location>":144,"<STR_LIT:idMunicipio>":145,"<STR_LIT:left>":146,"<STR_LIT:;>":147,"<STR_LIT:count>":148,"<STR_LIT:errors>":149,"<STR_LIT:country>":150,"<STR_LIT:first_name>":151,"<STR_LIT:placeholder>":152,"<STR_LIT:middleware>":153,"<STR_LIT:products>":154,"<STR_LIT:#>":155,"<STR_LIT:quantity>":156,"<STR_LIT:color>":157,"<STR_LIT:style>":158,"<STR_LIT:last_name>":159,"<STR_LIT:fields>":160,"<STR_LIT:nome>":161,"<STR_LIT:A>":162,"<STR_LIT:sort>":163,"<STR_LIT:items>":164,"<STR_LIT:null>":165,"<STR_LIT:limit>":166,"<STR_LIT:en>":167,"<STR_LIT:product>":168,"<STR_LIT:bar>":169,"<STR_LIT:header>":170,"<STR_LIT:get>":171,"<STR_LIT:c>":172,"<STR_LIT:ASC>":173,"<STR_LIT:time>":174,"<STR_LIT:config>":175,"<STR_LIT:application/json>":176,"<STR_LIT:comment>":177,"<STR_LIT:pid>":178,"<STR_LIT:Name>":179,"<STR_LIT:start>":180,"<STR_LIT:all>":181,"<STR_LIT:group>":182,"<STR_LIT:year>":183,"<STR_LIT:</option>>":184,"<STR_LIT:attribute>":185,"<STR_LIT:5>":186,"<STR_LIT:yes>":187,"<STR_LIT:B>":188,"<STR_LIT:format>":189,"<STR_LIT:checked>":190,"<STR_LIT:m>":191,"<STR_LIT:submit>":192,"<STR_LIT:false>":193,"<STR_LIT:|>":194,"<STR_LIT:s>":195,"<STR_LIT:template>":196,"<STR_LIT:shape>":197,"<STR_LIT:d>":198,"<STR_LIT:LIKE>":199,"<STR_LIT:array>":200,"<STR_LIT:country_id>":201,"<STR_LIT:settings>":202,"<STR_LIT:gender>":203,"<NUM_LIT:0>":204,"<NUM_LIT:1>":205,"<NUM_LIT:2>":206,"<NUM_LIT:3>":207,"<NUM_LIT:4>":208,"<NUM_LIT:5>":209,"<NUM_LIT:10>":210,"<NUM_LIT:1000>":211,"<NUM_LIT:200>":212,"<NUM_LIT:6>":213,"<NUM_LIT:100>":214,"<NUM_LIT:8>":215,"<NUM_LIT:7>":216,"<NUM_LIT:-1>":217,"<NUM_LIT:20>":218,"<NUM_LIT:9>":219,"<NUM_LIT:12>":220,"<NUM_LIT:60>":221,"<NUM_LIT:15>":222,"<NUM_LIT:30>":223,"<NUM_LIT:50>":224,"<NUM_LIT:11>":225,"<NUM_LIT:500>":226,"<NUM_LIT:400>":227,"<NUM_LIT:16>":228,"<NUM_LIT:255>":229,"<NUM_LIT:404>":230,"<NUM_LIT:24>":231,"<NUM_LIT:13>":232,"<NUM_LIT:1000.0>":233,"!":234,"\"":235,"#":236,"$":237,"%":238,"&":239,"'":240,"(":241,")":242,"*":243,"+":244,",":245,"-":246,".":247,"/":248,"0":249,"1":250,"2":251,"3":252,"4":253,"5":254,"6":255,"7":256,"8":257,"9":258,":":259,";":260,"<":261,"=":262,">":263,"?":264,"@":265,"A":266,"B":267,"C":268,"D":269,"E":270,"F":271,"G":272,"H":273,"I":274,"J":275,"K":276,"L":277,"M":278,"N":279,"O":280,"P":281,"Q":282,"R":283,"S":284,"T":285,"U":286,"V":287,"W":288,"X":289,"Y":290,"Z":291,"[":292,"\\":293,"]":294,"^":295,"_":296,"`":297,"a":298,"b":299,"c":300,"d":301,"e":302,"f":303,"g":304,"h":305,"i":306,"j":307,"k":308,"l":309,"m":310,"n":311,"o":312,"p":313,"q":314,"r":315,"s":316,"t":317,"u":318,"v":319,"w":320,"x":321,"y":322,"z":323,"{":324,"|":325,"}":326,"~":327,"¡":328,"¢":329,"£":330,"¤":331,"¥":332,"¦":333,"§":334,"¨":335,"©":336,"ª":337,"«":338,"¬":339,"®":340,"¯":341,"°":342,"±":343,"²":344,"³":345,"´":346,"µ":347,"¶":348,"·":349,"¸":350,"¹":351,"º":352,"»":353,"¼":354,"½":355,"¾":356,"¿":357,"À":358,"Á":359,"Â":360,"Ã":361,"Ä":362,"Å":363,"Æ":364,"Ç":365,"È":366,"É":367,"Ê":368,"Ë":369,"Ì":370,"Í":371,"Î":372,"Ï":373,"Ð":374,"Ñ":375,"Ò":376,"Ó":377,"Ô":378,"Õ":379,"Ö":380,"×":381,"Ø":382,"Ù":383,"Ú":384,"Û":385,"Ü":386,"Ý":387,"Þ":388,"ß":389,"à":390,"á":391,"â":392,"ã":393,"ä":394,"å":395,"æ":396,"ç":397,"è":398,"é":399,"ê":400,"ë":401,"ì":402,"í":403,"î":404,"ï":405,"ð":406,"ñ":407,"ò":408,"ó":409,"ô":410,"õ":411,"ö":412,"÷":413,"ø":414,"ù":415,"ú":416,"û":417,"ü":418,"ý":419,"þ":420,"ÿ":421,"Ā":422,"ā":423,"Ă":424,"ă":425,"Ą":426,"ą":427,"Ć":428,"ć":429,"Ĉ":430,"ĉ":431,"Ċ":432,"ċ":433,"Č":434,"č":435,"Ď":436,"ď":437,"Đ":438,"đ":439,"Ē":440,"ē":441,"Ĕ":442,"ĕ":443,"Ė":444,"ė":445,"Ę":446,"ę":447,"Ě":448,"ě":449,"Ĝ":450,"ĝ":451,"Ğ":452,"ğ":453,"Ġ":454,"ġ":455,"Ģ":456,"ģ":457,"Ĥ":458,"ĥ":459,"Ħ":460,"ħ":461,"Ĩ":462,"ĩ":463,"Ī":464,"ī":465,"Ĭ":466,"ĭ":467,"Į":468,"į":469,"İ":470,"ı":471,"Ĳ":472,"ĳ":473,"Ĵ":474,"ĵ":475,"Ķ":476,"ķ":477,"ĸ":478,"Ĺ":479,"ĺ":480,"Ļ":481,"ļ":482,"Ľ":483,"ľ":484,"Ŀ":485,"ŀ":486,"Ł":487,"ł":488,"Ń":489,"ol":490,"eol":491,"LI":492,"LIT":493,"ST":494,"STR":495,";<":496,"Ġ=":497,"Ġ$":498,"on":499,"->":500,"er":501,"et":502,"Ġ<":503,"ti":504,">$":505,"is":506,");<":507,"th":508,"($":509,"te":510,"tion":511,"{<":512,">}":513,">,":514,"es":515,"this":516,">}<":517,"><":518,"ar":519,"in":520,"se":521,"Ġ=>":522,"un":523,"en":524,"or":525,"st":526,"al":527,"(<":528,"ur":529,"ction":530,"ic":531,"[<":532,">]":533,"bl":534,"Ġf":535,"NU":536,"ra":537,"NUM":538,"unction":539,"pu":540,"Ġ{<":541,">,<":542,"at":543,"()":544,"am":545,"re":546,">{<":547,"Ġfunction":548,"get":549,"as":550,"ce":551,"ro":552,"blic":553,"public":554,"ret":555,"urn":556,"return":557,"le":558,"de":559,",<":560,"if":561,"::":562,"ent":563,"ch":564,">)":565,"ate":566,"an":567,"ct":568,"ul":569,"ray":570,"ass":571,">);<":572,"ue":573,"id":574,"array":575,"el":576,"ag":577,"tr":578,">;<":579,"con":580,"set":581,"Ġ(":582,"Ġn":583,"fi":584,"ter":585,"str":586,")<":587,"use":588,"cl":589,"qu":590,"ame":591,"ode":592,"ty":593,"ew":594,"ex":595,"ad":596,"();<":597,"In":598,"Ġ($":599,"ata":600,"Ġ.":601,"ing":602,"mp":603,"pe":604,"ption":605,"ace":606,"ri":607,"res":608,"ser":609,"pro":610,"val":611,"class":612,"il":613,"age":614,"si":615,"est":616,"Con":617,"Re":618,"ull":619,"Ġarray":620,"lo":621,"um":622,"ten":623,"ck":624,"Ex":625,"co":626,"()<":627,"ation":628,"par":629,"ted":630,"))":631,"for":632,"Ġget":633,"ble":634,"data":635,"esp":636,"ta":637,"ey":638,"it":639,"Ġnew":640,"Ġnull":641,"ed":642,"cted":643,"Ġ[<":644,"quest":645,"ap":646,"od":647,"ess":648,"alse":649,"Ġ?":650,"ult":651,"Co":652,"ment":653,"[$":654,"ds":655,"name":656,"der":657,"per":658,"string":659,"ception":660,"ase":661,"po":662,"to":663,"Name":664,"im":665,"__":666,"?<":667,"Ġ==":668,"true":669,"tected":670,"protected":671,"Ġfalse":672,"ach":673,"pl":674,"Pro":675,"Exception":676,"value":677,"[]":678,"Id":679,"<?<":680,"up":681,"Ty":682,"tic":683,"sel":684,"Ġ)":685,"bu":686,"ist":687,"self":688,"riv":689,"Inter":690,"int":691,"amesp":692,"ect":693,"amespace":694,"Fi":695,">];<":696,"sion":697,"Ġtrue":698,"ĠS":699,">],<":700,"ma":701,"Type":702,"face":703,"key":704,"else":705,"namespace":706,"odel":707,"ery":708,"rivate":709,"bj":710,"ory":711,"private":712,"Val":713,"tem":714,"sta":715,"row":716,"onse":717,"ert":718,"ath":719,"Interface":720,"Ġ!":721,"able":722,"unt":723,"and":724,"Data":725,"user":726,"ĠA":727,"static":728,">->":729,"uct":730,"ver":731,"ou":732,"Ġex":733,"Ġas":734,"assert":735,"Par":736,"ay":737,"put":738,"add":739,"ig":740,"ve":741,"ran":742,"eld":743,"()->":744,"Ġ(!":745,"fore":746,"ice":747,"param":748,"request":749,"Cl":750,"iz":751,"ers":752,"St":753,"xt":754,"Ġ&":755,">),<":756,"di":757,"me":758,"To":759,">.":760,"bject":761,"isset":762,"ER":763,"En":764,"Ġ\\":765,"Ġelse":766,"atch":767,"result":768,"ator":769,">]);<":770,"Ar":771,"all":772,"foreach":773,"essage":774,"file":775,"tent":776,"ptions":777,"ĠP":778,"cho":779,"vent":780,"reate":781,"->_":782,"tends":783,"Ġset":784,"Ġ__":785,"Lo":786,"Ġstatic":787,"Ġextends":788,"form":789,"ror":790,"sh":791,"fig":792,"echo":793,"Ġ===":794,"fin":795,">)<":796,"Ġ:":797,"Ser":798,"our":799,"tin":800,"ort":801,"ance":802,"text":803,"ot":804,"type":805,"Ġ&&":806,"end":807,"ub":808,"Ġ);<":809,">])":810,"fa":811,"For":812,"url":813,"tri":814,"count":815,"Request":816,"emp":817,"Ġ[]":818,">=":819,"function":820,".<":821,"new":822,"):":823,"date":824,"query":825,"ang":826,"us":827,"const":828,"rans":829,"mm":830,"Model":831,"De":832,"fo":833,"><?":834,"ore":835,"ĠC":836,"ken":837,"create":838,"vice":839,"lement":840,"ler":841,"he":842,"ow":843,"Res":844,"));<":845,"Ġ!=":846,"());<":847,"ON":848,"table":849,"Value":850,"ack":851,"Ġself":852,"():":853,"gs":854,"pre":855,"ht":856,"eth":857,"ĠT":858,"struct":859,"col":860,"code":861,"und":862,"pr":863,"ource":864,"vi":865,"tribu":866,"resp":867,"ethod":868,"stance":869,"ine":870,"User":871,"fil":872,"bo":873,"Comp":874,"che":875,"of":876,"tity":877,"tribute":878,"path":879,"ip":880,"out":881,"ient":882,"AT":883,"ml":884,"response":885,"RE":886,"options":887,">][<":888,">));<":889,"ĠD":890,"tain":891,"params":892,"cri":893,"ument":894,"are":895,"cess":896,"cur":897,"construct":898,"item":899,"Param":900,"throw":901,"ract":902,"ac":903,"Col":904,"ab":905,"File":906,"act":907,">],":908,"valid":909,"var":910,"son":911,"tp":912,"ord":913,"app":914,"op":915,"empty":916,"lection":917,"Key":918,"Resp":919,"Str":920,"field":921,"ak":922,"case":923,"ime":924,"Form":925,"ql":926,"IN":927,"ock":928,"db":929,"=<":930,"base":931,"Response":932,"OR":933,"ĠM":934,"aliz":935,"om":936,">)->":937,"Class":938,":<":939,"tainer":940,"ader":941,"oc":942,"ext":943,"uth":944,"Ap":945,">.$":946,"content":947,">[<":948,"Ht":949,"time":950,"vo":951,"())":952,"Qu":953,"Se":954,"als":955,"ith":956,"umn":957,"Ġ.=":958,"onent":959,"oo":960,"imp":961,"trol":962,"model":963,"roup":964,"ule":965,"Event":966,"ire":967,"([<":968,"fault":969,"parent":970,"art":971,"ure":972,"error":973,"Path":974,">=><":975,"wh":976,"Ġ!==":977,"::$":978,"late":979,"Ad":980,"gin":981,"pes":982,"ists":983,"At":984,"sub":985,"post":986,"posi":987,"test":988,"fer":989,"Service":990,"ild":991,"Man":992,"ager":993,"atus":994,"ĠG":995,"Ġin":996,"ll":997,"rom":998,"load":999,"print":1000,"dex":1001,"Bu":1002,"ne":1003,"ber":1004,"Message":1005,"Ġ[];<":1006,"Ġstr":1007,"has":1008,"ict":1009,"config":1010,"port":1011,"LE":1012,"min":1013,"Equ":1014,"Comm":1015,"action":1016,"Ġstring":1017,"Code":1018,"ache":1019,"bre":1020,"perty":1021,"Ch":1022,"ĠI":1023,"Ġ|":1024,"By":1025,">))":1026,"message":1027,"sql":1028,"AL":1029,"Object":1030,"Component":1031,"ph":1032,"SE":1033,"ork":1034,"ink":1035,"Field":1036,"ren":1037,"String":1038,"Array":1039,"Time":1040,"object":1041,"ge":1042,"break":1043,"null":1044,"00":1045,"cal":1046,"Equals":1047,"match":1048,"Or":1049,"Ac":1050,"try":1051,"ME":1052,"ener":1053,"cu":1054,"Http":1055,"method":1056,"ere":1057,"posit":1058,"ail":1059,"ilder":1060,"mo":1061,"ĠF":1062,">]))":1063,"Trans":1064,"ID":1065,"ity":1066,"ger":1067,"exists":1068,"Query":1069,"ym":1070,"Config":1071,"Ġ||":1072,"assertEquals":1073,"stract":1074,"gument":1075,"ole":1076,"place":1077,"order":1078,"ues":1079,"rl":1080,"Test":1081,"Control":1082,"Ġtest":1083,"Node":1084,"Ġ+":1085,"Ġ$_":1086,"List":1087,"Ġc":1088,"ĠB":1089,"Manager":1090,"Er":1091,"ION":1092,"Token":1093,"Item":1094,"void":1095,"json":1096,"rent":1097,"pository":1098,"Set":1099,"lect":1100,"list":1101,"Url":1102,"Fil":1103,"event":1104,"Ġvoid":1105,"arch":1106,"(),":1107,"Ġis":1108,"ast":1109,"Po":1110,"Client":1111,">:<":1112,"Ġ(!$":1113,"dis":1114,"token":1115,"(),<":1116,"Fact":1117,"Error":1118,"Un":1119,"];<":1120,"Entity":1121,"log":1122,"pt":1123,"expe":1124,"fon":1125,"Ġecho":1126,"comp":1127,"default":1128,"ia":1129,"gle":1130,"HP":1131,"page":1132,"ession":1133,"let":1134,"ĠAp":1135,"lang":1136,"til":1137,"elper":1138,"Ġs":1139,"SS":1140,"Core":1141,"types":1142,"Content":1143,"Valid":1144,"vid":1145,"ting":1146,"filter":1147,"Info":1148,"AR":1149,"PE":1150,"trans":1151,"Attribute":1152,"temp":1153,"view":1154,"elds":1155,"reg":1156,"container":1157,"duct":1158,"oogle":1159,"Factory":1160,"back":1161,"replace":1162,"input":1163,"ody":1164,"Ġimp":1165,"undle":1166,"mail":1167,"bool":1168,"len":1169,"Ġ?><?":1170,"where":1171,"Log":1172,"call":1173,"check":1174,"lements":1175,"FI":1176,"UR":1177,"ut":1178,"num":1179,"ile":1180,"Ġisset":1181,"attribute":1182,"info":1183,"ress":1184,"He":1185,"LO":1186,"Builder":1187,"An":1188,"ializ":1189,"Ġ(<":1190,"context":1191,"args":1192,"As":1193,"one":1194,"Date":1195,"lu":1196,"Bundle":1197,"ind":1198,"fony":1199,"ymfony":1200,"Of":1201,"Repository":1202,"ign":1203,"output":1204,"]);<":1205,"ts":1206,"printf":1207,"DE":1208,"des":1209,"mar":1210,"node":1211,"Up":1212,"andler":1213,"TY":1214,"dir":1215,"Util":1216,"low":1217,"update":1218,"ir":1219,"current":1220,"quire":1221,"chema":1222,"Table":1223,"main":1224,"html":1225,"GE":1226,"Api":1227,"mod":1228,"decl":1229,"tive":1230,"Ġ?><":1231,"ms":1232,"tag":1233,"Controller":1234,")->":1235,"Rou":1236,"ication":1237,"vider":1238,"Tra":1239,"ition":1240,"fix":1241,"column":1242,"strict":1243,"vel":1244,"PO":1245,"do":1246,"ĠSymfony":1247,"ys":1248,"entity":1249,"li":1250,"bstract":1251,"enti":1252,"inate":1253,"Result":1254,"group":1255,"ĠApp":1256,"Ġ>":1257,"ties":1258,"eters":1259,">?":1260,"ages":1261,"DI":1262,"nection":1263,"Method":1264,"wri":1265,"Vi":1266,"stom":1267,"defin":1268,"TE":1269,"declare":1270,"format":1271,"ave":1272,"ke":1273,"Property":1274,"Ġinstance":1275,"word":1276,">),":1277,"dire":1278,"Sh":1279,"Page":1280,"Ġinstanceof":1281,"pos":1282,"ry":1283,"status":1284,"with":1285,"($_":1286,"ii":1287,"inter":1288,"fset":1289,"ob":1290,"start":1291,"cription":1292,"Argument":1293,"comm":1294,"aders":1295,"Ret":1296,"ateg":1297,"Helper":1298,"met":1299,"NT":1300,"][<":1301,"mis":1302,"DB":1303,"ies":1304,"Auth":1305,"ask":1306,"own":1307,"ze":1308,"Met":1309,"Command":1310,"client":1311,"Count":1312,"Options":1313,"index":1314,"tit":1315,"adata":1316,"cy":1317,"ream":1318,"ize":1319,"line":1320,"auth":1321,"ok":1322,"),<":1323,"lete":1324,"ĠL":1325,"Ġm":1326,"ard":1327,"ĠR":1328,"Collection":1329,"link":1330,"Ġ)<":1331,"ĠN":1332,"Instance":1333,"Ver":1334,"UE":1335,"abel":1336,"tings":1337,"ence":1338,"tension":1339,"Invalid":1340,"uage":1341,"ocument":1342,"direct":1343,"ecu":1344,"rou":1345,"CT":1346,"read":1347,"Ġ-":1348,"ĠE":1349,"Action":1350,"hp":1351,"once":1352,"cord":1353,"parse":1354,"tra":1355,"uminate":1356,"Map":1357,"lluminate":1358,"Params":1359,"preg":1360,"Column":1361,"AN":1362,"require":1363,"Order":1364,"ann":1365,"){<":1366,"ations":1367,"sert":1368,"ash":1369,"ion":1370,"Group":1371,"obj":1372,"ces":1373,"From":1374,"ject":1375,"Context":1376,"CO":1377,"rst":1378,"Ġimplements":1379,"ill":1380,"image":1381,"Get":1382,"Provider":1383,"arget":1384,"With":1385,"find":1386,"View":1387,"ĠIlluminate":1388,"TYPE":1389,"Input":1390,"su":1391,"Return":1392,"ud":1393,"offset":1394,"cache":1395,"from":1396,"substr":1397,"mer":1398,"option":1399,"mment":1400,"Resource":1401,">;":1402,"values":1403,"write":1404,"play":1405,">]<":1406,"encode":1407,"Filter":1408,"Ġbool":1409,"ram":1410,"ware":1411,"map":1412,",$":1413,"eb":1414,"amp":1415,"sen":1416,"no":1417,"em":1418,"Status":1419,"Container":1420,"etch":1421,"Dis":1422,"Text":1423,"Route":1424,"fields":1425,"Handler":1426,"Num":1427,"),":1428,"title":1429,"api":1430,"nal":1431,"delete":1432,"ĠO":1433,"Base":1434,"eter":1435,"CE":1436,"header":1437,"ategory":1438,"ration":1439,"ules":1440,"clu":1441,"POST":1442,"ystem":1443,"wp":1444,"Ġelseif":1445,"fe":1446,"Mock":1447,"],<":1448,"Element":1449,"imit":1450,"AP":1451,"Ġint":1452,"Add":1453,"ĠW":1454,"Not":1455,"gth":1456,"=$":1457,"unset":1458,"version":1459,"Cache":1460,"++":1461,"prop":1462,"arr":1463,"Format":1464,"SER":1465,"Temp":1466,"Mod":1467,"Ġ_":1468,"ĠRe":1469,"Tag":1470,"sw":1471,"ight":1472,"buf":1473,"Ġ.<":1474,"ded":1475,"session":1476,"trim":1477,"ss":1478,"Gener":1479,"render":1480,"be":1481,"template":1482,"resource":1483,"Des":1484,"cript":1485,"max":1486,"Ġ{":1487,"mission":1488,"())<":1489,"ho":1490,"assword":1491,"av":1492,"ref":1493,"false":1494,"lock":1495,"search":1496,"orm":1497,"State":1498,"ated":1499,"select":1500,"ant":1501,"Var":1502,"Ġconst":1503,"Version":1504,"Parser":1505,"expected":1506,"))<":1507,"Ġclass":1508,"Database":1509,"Be":1510,"pay":1511,"Index":1512,"state":1513,"orage":1514,"Ġif":1515,"VER":1516,"ĠPHP":1517,"Call":1518,"ename":1519,"cation":1520,"Schema":1521,"Clo":1522,"Proto":1523,"property":1524,"ound":1525,"Body":1526,"last":1527,"cale":1528,"size":1529,"build":1530,"instance":1531,"pec":1532,"RO":1533,"uld":1534,"LL":1535,"Trait":1536,"dition":1537,"tract":1538,"Do":1539,"attributes":1540,">});<":1541,"pres":1542,"ister":1543,"lob":1544,"Json":1545,"Defin":1546,"tal":1547,"tes":1548,"lation":1549,"Per":1550,"sr":1551,"andle":1552,"Pre":1553,"first":1554,"Ġcount":1555,"move":1556,"ĠGoogle":1557,"gener":1558,"ecute":1559,"ould":1560,"esc":1561,"PT":1562,"]))":1563,"ary":1564,"Template":1565,"Sub":1566,"merge":1567,"Pl":1568,"expect":1569,"Im":1570,"ree":1571,"Ġ[":1572,"product":1573,"ATE":1574,">?><":1575,"Option":1576,"DO":1577,"Product":1578,"Pay":1579,"perties":1580,"Same":1581,"tif":1582,"ax":1583,"Ġ??":1584,"patch":1585,"entifi":1586,"Definition":1587,"source":1588,"ange":1589,"No":1590,"(!":1591,"yn":1592,"service":1593,"uid":1594,"ference":1595,"}<":1596,"char":1597,"save":1598,"os":1599,"older":1600,"DIR":1601,"fl":1602,"On":1603,"PHP":1604,"isten":1605,"plu":1606,"ML":1607,"10":1608,"man":1609,"Reg":1610,"ctory":1611,"Ġjson":1612,"element":1613,"gn":1614,"Serializ":1615,"ueue":1616,"EL":1617,"ĠH":1618,"Ġ*":1619,"tinue":1620,"ework":1621,"ly":1622,"uration":1623,"Al":1624,"ramework":1625,"sprintf":1626,"Out":1627,"Default":1628,"xml":1629,"Th":1630,"target":1631,"ron":1632,"Case":1633,"ish":1634,"002":1635,"Ġ),<":1636,"server":1637,">,$":1638,"raw":1639,"AME":1640,"olver":1641,"fetch":1642,"continue":1643,"Ġ=><":1644,"etail":1645,"Ġcatch":1646,"assertSame":1647,"NULL":1648,"Yii":1649,"ner":1650,"enu":1651,"headers":1652,"should":1653,"Ref":1654,"ft":1655,"plode":1656,"::__":1657,"email":1658,"ite":1659,"Metadata":1660,"body":1661,"pack":1662,"entifier":1663,"unc":1664,"Del":1665,"Size":1666,"rue":1667,"ctr":1668,"CH":1669,"Le":1670,"Const":1671,"Values":1672,"Number":1673,"wid":1674,"All":1675,"Models":1676,"lobal":1677,"upport":1678,"not":1679,"process":1680,"Cons":1681,"Unit":1682,"child":1683,"Access":1684,"bug":1685,"GET":1686,"Lang":1687,"decode":1688,"Ġre":1689,"files":1690,"riter":1691,"connection":1692,"TH":1693,"Abstract":1694,"ING":1695,"Ġadd":1696,"App":1697,"Update":1698,")$":1699,"custom":1700,"plugin":1701,"parameters":1702,"(\\":1703,"http":1704,"iti":1705,"du":1706,"InvalidArgument":1707,"Found":1708,"final":1709,"work":1710,"clude":1711,"by":1712,"mark":1713,"register":1714,"tern":1715,"limit":1716,"keys":1717,"site":1718,"validate":1719,"Extension":1720,"ames":1721,"exception":1722,"block":1723,"Header":1724,"Framework":1725,"Is":1726,"Ġcreate":1727,"heck":1728,"Admin":1729,"InvalidArgumentException":1730,"UN":1731,"point":1732,"items":1733,"idd":1734,"Dict":1735,"ial":1736,"og":1737,"lode":1738,"handle":1739,"Google":1740,"ctrine":1741,"PB":1742,"Contract":1743,"Cur":1744,"OL":1745,"attr":1746,"insert":1747,"comment":1748,"Row":1749,">]->":1750,"igration":1751,"mt":1752,"LA":1753,"Types":1754,"propDict":1755,">);":1756,"label":1757,"cre":1758,"ices":1759,"settings":1760,"ĠException":1761,"AD":1762,"ĠAbstract":1763,"Image":1764,"rid":1765,"Validator":1766,"Document":1767,">\\":1768,"route":1769,"Sta":1770,"matches":1771,"ie":1772,"run":1773,"Dir":1774,"NAME":1775,"Server":1776,"apping":1777,"pression":1778,"pend":1779,"Generator":1780,"contents":1781,"Parameters":1782,"ifi":1783,"itch":1784,"annel":1785,"edia":1786,"module":1787,"prefix":1788,"Parameter":1789,"ustom":1790,"Connection":1791,"php":1792,"control":1793,"ali":1794,"tt":1795,"oin":1796,">$_":1797,"stream":1798,"Su":1799,"Process":1800,"uri":1801,"(__":1802,"Rel":1803,"terator":1804,"old":1805,"Post":1806,"sign":1807,"ments":1808,"HT":1809,"vis":1810,"apter":1811,"Ġ[$":1812,"Cloud":1813,"nect":1814,"ĠNULL":1815,"Html":1816,"Address":1817,"cor":1818,"Block":1819,"send":1820,"push":1821,"Create":1822,"Link":1823,"meta":1824,"command":1825,"ick":1826,"URL":1827,"Search":1828,"Fields":1829,"Ġuse":1830,"msg":1831,"ulti":1832,"language":1833,"Ġsprintf":1834,"argument":1835,"Check":1836,"lugin":1837,"sp":1838,"admin":1839,"record":1840,"plication":1841,"filename":1842,"Session":1843,"ook":1844,"gg":1845,".$":1846,"my":1847,"ccess":1848,"Console":1849,"PAR":1850,"Ġsubstr":1851,"Work":1852,"Ġempty":1853,"ĠAr":1854,"number":1855,"description":1856,"ormaliz":1857,"Line":1858,"cle":1859,"execute":1860,"Internal":1861,"getName":1862,"curl":1863,"collection":1864,"total":1865,"bles":1866,">][$":1867,"GPB":1868,"tmp":1869,"True":1870,"mem":1871,"OT":1872,"alias":1873,"ĠZ":1874,"abstract":1875,"while":1876,"ply":1877,"next":1878,"attern":1879,"callback":1880,"opt":1881,"Php":1882,"Run":1883,"ender":1884,"Ġexplode":1885,"core":1886,"CON":1887,">=>":1888,"ose":1889,"],":1890,"Fixt":1891,"ĠJ":1892,"define":1893,"switch":1894,"length":1895,"UT":1896,":'":1897,"tim":1898,"LT":1899,"Ġpreg":1900,"the":1901,">])<":1902,"io":1903,"will":1904,"Resolver":1905,"Ġe":1906,"End":1907,"global":1908,"Child":1909,"Output":1910,"rap":1911,"DateTime":1912,"Ġ&$":1913,"river":1914,"Plugin":1915,"interface":1916,"Pr":1917,"ify":1918,"make":1919,"Support":1920,"open":1921,"host":1922,"Custom":1923,"ix":1924,"hash":1925,"ORM":1926,"Ġreturn":1927,"category":1928,"raint":1929,"Account":1930,"serializ":1931,"rand":1932,"root":1933,"gra":1934,"estamp":1935,"ker":1936,"oper":1937,"ids":1938,"ERR":1939,"Pu":1940,"project":1941,"REQ":1942,"Domain":1943,"ELD":1944,"KE":1945,"ain":1946,"PA":1947,"Protobuf":1948,"password":1949,"getId":1950,"exp":1951,"?><?":1952,"Source":1953,"mary":1954,"Null":1955,"Function":1956,"arg":1957,"rency":1958,"MA":1959,"assertTrue":1960,"ĠPhp":1961,"IT":1962,"can":1963,"generate":1964,"iv":1965,"Storage":1966,"iff":1967,"Files":1968,"Common":1969,"sing":1970,"ive":1971,"100":1972,"Dire":1973,"Oper":1974,"Headers":1975,"results":1976,"Db":1977,"Ġtrim":1978,"And":1979,"ĠDo":1980,">].<":1981,"Uri":1982,"essages":1983,"prepar":1984,"API":1985,"Ids":1986,"One":1987,"AM":1988,"Bo":1989,"rate":1990,"abled":1991,"Pack":1992,"Ġ()":1993,"Fac":1994,"ature":1995,"Ġ]":1996,"domain":1997,"AB":1998,"Ġ!$":1999,"entic":2000,"init":2001,"sort":2002,"Email":2003,"ories":2004,"Language":2005,"iable":2006,"FILE":2007,"part":2008,"color":2009,"Rule":2010,"ual":2011,"Stream":2012,"Delet":2013,"close":2014,"Ġimplode":2015,"show":2016,"Ġ(\\":2017,"itor":2018,"Ġ+=":2019,"FIELD":2020,"address":2021,"tol":2022,"cret":2023,">))<":2024,"SSION":2025,">=>$":2026,"ib":2027,"etails":2028,"getMessage":2029,"box":2030,"logger":2031,"Transfer":2032,":-":2033,"ower":2034,"cope":2035,"ency":2036,"patcher":2037,"Attributes":2038,"ĠUser":2039,"Fixture":2040,"Emp":2041,"tach":2042,"mon":2043,"rows":2044,"display":2045,"Module":2046,"Wh":2047,"OD":2048,"<?":2049,"Logger":2050,"blish":2051,"pen":2052,"Label":2053,"Web":2054,"debug":2055,"ĠBase":2056,"20":2057,"condition":2058,"allow":2059,"df":2060,"QL":2061,"vices":2062,"go":2063,"sty":2064,"SERVER":2065,"tton":2066,"])":2067,"builder":2068,"rule":2069,"iq":2070,"ote":2071,"store":2072,"author":2073,"Loc":2074,"tification":2075,"tokens":2076,"getS":2077,"schema":2078,"Len":2079,"cry":2080,"extension":2081,"coun":2082,"lug":2083,"led":2084,"Ġ__(<":2085,"Wid":2086,"tolower":2087,"por":2088,"Serializer":2089,"cip":2090,"Record":2091,"Description":2092,"RI":2093,"expects":2094,"curity":2095,"down":2096,"entry":2097,"redirect":2098,"role":2099,"uto":2100,"func":2101,"Events":2102,"Validation":2103,"Ġ[])<":2104,"level":2105,"document":2106,"estion":2107,"metadata":2108,"bind":2109,"ĠYii":2110,"Match":2111,"errors":2112,"ec":2113,"ee":2114,"include":2115,"Tit":2116,"cket":2117,"err":2118,"handler":2119,"ĠDoctrine":2120,"yii":2121,"odes":2122,"iddle":2123,"ship":2124,"FA":2125,"lers":2126,"Ġ/":2127,"ous":2128,"SESSION":2129,"af":2130,"UEST":2131,"prepare":2132,"Permission":2133,"lector":2134,"Migration":2135,"remove":2136,"mock":2137,"Annot":2138,"Settings":2139,"VE":2140,"ync":2141,"rop":2142,"width":2143,"LOB":2144,"sed":2145,"task":2146,"Task":2147,"controller":2148,"Ali":2149,"ape":2150,"olic":2151,"Ġesc":2152,"Args":2153,"Mapping":2154,"MS":2155,"TestCase":2156,"Imp":2157,"ility":2158,"istry":2159,"ell":2160,"pri":2161,">.<":2162,"username":2163,"menu":2164,"className":2165,"Reflection":2166,"Empty":2167,"ear":2168,"ĠSh":2169,"REQUEST":2170,"ERROR":2171,"Location":2172,"INT":2173,"Contracts":2174,"Ġhas":2175,"US":2176,"Expression":2177,"ĠK":2178,"spec":2179,"stmt":2180,"locale":2181,">){<":2182,"ization":2183,"factory":2184,"Project":2185,"orig":2186,"Start":2187,"account":2188,"py":2189,"Tests":2190,"helper":2191,"Title":2192,"defined":2193,"access":2194,"Properties":2195,"ATH":2196,">[":2197,"willReturn":2198,"tags":2199,"System":2200,"pa":2201,"atform":2202,"ĠRequest":2203,"Fl":2204,"EOL":2205,"New":2206,"ĠV":2207,"][$":2208,"Iterator":2209,"properties":2210,"NE":2211,"scri":2212,"Comment":2213,"parts":2214,"cs":2215,"location":2216,"Reference":2217,"Queue":2218,"Items":2219,"Store":2220,"ĠCon":2221,"stack":2222,"lay":2223,"ade":2224,"red":2225,"afe":2226,"LOBAL":2227,"tep":2228,"tact":2229,"strlen":2230,"ĠIn":2231,"arguments":2232,"Identifier":2233,"Ġstrlen":2234,"join":2235,"HI":2236,"Names":2237,"dat":2238,"EN":2239,"Sql":2240,"Level":2241,"umb":2242,"EX":2243,"ĠSt":2244,"Utils":2245,">:":2246,"SI":2247,"GLOBAL":2248,"Ġparent":2249,"Job":2250,"any":2251,"Category":2252,"Back":2253,"columns":2254,"Configuration":2255,"ĠResponse":2256,"position":2257,"top":2258,"Alias":2259,"ding":2260,"sum":2261,"MP":2262,"ric":2263,"Parent":2264,"sl":2265,"ALSE":2266,"Cal":2267,"timeException":2268,"vars":2269,"Length":2270,"Mon":2271,"ATOR":2272,"aw":2273,"sition":2274,"okie":2275,"==<":2276,");":2277,"day":2278,"Role":2279,"ified":2280,"Adapter":2281,"++;<":2282,"istener":2283,"teger":2284,"Transaction":2285,"Char":2286,"GLOBALS":2287,"assign":2288,"Tim":2289,"Ro":2290,"vert":2291,"Payment":2292,"ha":2293,"Depend":2294,"Render":2295,"((":2296,"iter":2297,"relation":2298,"ative":2299,"Mode":2300,"Ġ}<":2301,"ines":2302,"ift":2303,"ĠZend":2304,"]<":2305,"component":2306,"subject":2307,"iddleware":2308,"ĠTest":2309,"Prefix":2310,"setProperty":2311,"tax":2312,"way":2313,"urse":2314,">]));<":2315,"ping":2316,"Spec":2317,"Has":2318,"mb":2319,"Password":2320,"Fe":2321,"Ġ__(":2322,"olicy":2323,"rules":2324,"LOPT":2325,"queue":2326,"URLOPT":2327,"CTION":2328,"stall":2329,"Mem":2330,"Ġpublic":2331,"Ġ[],":2332,"ched":2333,"ost":2334,"tis":2335,"(){<":2336,"manager":2337,"><?<":2338,"resol":2339,"book":2340,"PRE":2341,"dump":2342,"nel":2343,"Coun":2344,"TO":2345,"its":2346,"fra":2347,"raph":2348,"ĠDate":2349,"inal":2350,"ULT":2351,"Meta":2352,"doc":2353,"owner":2354,"UP":2355,"job":2356,").<":2357,"TP":2358,"payload":2359,"STAT":2360,"definition":2361,">).<":2362,"Int":2363,"pattern":2364,"ara":2365,"Color":2366,"USER":2367,"Ġ(($":2368,"ABLE":2369,"Doc":2370,"Pers":2371,"rol":2372,"Exists":2373,"ORY":2374,"GPBUtil":2375,"(?":2376,"Application":2377,"Ġyii":2378,"ĠArray":2379,"coding":2380,"wig":2381,"mode":2382,"Hash":2383,"ATION":2384,"Ow":2385,"package":2386,"append":2387,"repository":2388,"Delete":2389,"'>,":2390,"RUE":2391,"round":2392,"ords":2393,"md":2394,"xy":2395,"Mail":2396,"tains":2397,"database":2398,"env":2399,"web":2400,"PRO":2401,"Dispatcher":2402,"permission":2403,"flag":2404,"rup":2405,"Sty":2406,"InstanceOf":2407,"raft":2408,"tor":2409,"invo":2410,"200":2411,"filters":2412,"payment":2413,"ols":2414,"exit":2415,"Loader":2416,"ĠFALSE":2417,"ants":2418,"XML":2419,"toArray":2420,"ocket":2421,"RA":2422,"ique":2423,"Mar":2424,"SON":2425,"storage":2426,"style":2427,"transaction":2428,"zz":2429,"script":2430,"member":2431,"Current":2432,"CK":2433,"Ġdate":2434,">):":2435,"sk":2436,"lator":2437,"attach":2438,"Directory":2439,"imple":2440,"PATH":2441,"Enum":2442,"die":2443,"les":2444,"reset":2445,"mit":2446,"parser":2447,"gine":2448,"Last":2449,"we":2450,"price":2451,"section":2452,"Struct":2453,"Relation":2454,"Ph":2455,"rig":2456,"Ġ>=":2457,"ymb":2458,"Package":2459,"&&":2460,"getValue":2461,"Ġ<=":2462,"ĠPh":2463,"Connect":2464,"Ġ}":2465,"active":2466,"aded":2467,"Locale":2468,"Price":2469,"slug":2470,"local":2471,"toString":2472,"Rece":2473,"Active":2474,"sure":2475,"PER":2476,"rupal":2477,"Criter":2478,"apply":2479,"flow":2480,"Sign":2481,"Media":2482,"ources":2483,"ount":2484,"height":2485,"Constraint":2486,"Keys":2487,"callable":2488,"Asset":2489,"tivi":2490,"customer":2491,"pag":2492,"aravel":2493,"success":2494,"Channel":2495,"Arr":2496,"serialize":2497,"ats":2498,"ĠSer":2499,"eric":2500,"Entry":2501,"Vis":2502,"())->":2503,"cul":2504,"Ġfile":2505,"Target":2506,"unk":2507,"Namespace":2508,"validator":2509,"resh":2510,"Xml":2511,"Ġwp":2512,"()))":2513,"parameter":2514,"iler":2515,"ures":2516,"ets":2517,"viron":2518,"TI":2519,"Ġapp":2520,"sor":2521,"change":2522,"Author":2523,"gment":2524,"tics":2525,"Owner":2526,"course":2527,"ake":2528,"Ag":2529,"vious":2530,"><?=":2531,"criter":2532,"amount":2533,"ning":2534,"STATUS":2535,"hook":2536,"False":2537,">&&":2538,"lib":2539,"Foundation":2540,"ved":2541,"ticle":2542,")){<":2543,"NO":2544,"CU":2545,"itializ":2546,"Security":2547,"je":2548,"Condition":2549,"elseif":2550,"64":2551,"channel":2552,"login":2553,"MO":2554,"std":2555,"multi":2556,"loy":2557,"->$":2558,"zone":2559,"SQL":2560,"oft":2561,"timestamp":2562,"theme":2563,">(":2564,"ared":2565,"conn":2566,"Ġupdate":2567,"CLA":2568,"ysql":2569,"Driver":2570,"ctor":2571,"++)":2572,"safe":2573,"AS":2574,"ther":2575,"quote":2576,"RECT":2577,"dirname":2578,"12":2579,"ped":2580,"Exceptions":2581,"cept":2582,"VAL":2583,"ED":2584,"ĠInvalidArgumentException":2585,"models":2586,"oser":2587,"ust":2588,"Where":2589,"Prop":2590,"ĠShop":2591,"Ed":2592,"vironment":2593,"strpos":2594,"sc":2595,"Ġ?><?=":2596,"Aware":2597,"provider":2598,"quent":2599,"sal":2600,"identifier":2601,"Pri":2602,"Allow":2603,"ateway":2604,"ns":2605,"currency":2606,"Bl":2607,"ands":2608,"now":2609,"Ġend":2610,"pc":2611,"abs":2612,"connect":2613,"dep":2614,"criptor":2615,"messages":2616,"Dependency":2617,"KEY":2618,"loc":2619,"Style":2620,"Annotation":2621,"Profile":2622,"ALI":2623,"icon":2624,"aly":2625,"Max":2626,"getMock":2627,"ĠTRUE":2628,"children":2629,"widget":2630,"rm":2631,"arb":2632,"Ġdelete":2633,"lected":2634,"ong":2635,"assertInstanceOf":2636,"Exp":2637,"ĠPsr":2638,"Ġ);":2639,"Registry":2640,"PTION":2641,"NotFound":2642,"Errors":2643,"ĠModel":2644,"escape":2645,"Root":2646,"enc":2647,"bar":2648,"users":2649,"ĠAd":2650,"getInstance":2651,"Obj":2652,">]]":2653,"Transform":2654,"UI":2655,"tivity":2656,"havi":2657,"Ġd":2658,"Variable":2659,"folder":2660,"Require":2661,"CLASS":2662,"MENT":2663,"ĠDateTime":2664,"PARATOR":2665,"loquent":2666,">};<":2667,"Writer":2668,"Menu":2669,"Publish":2670,">];":2671,"AGE":2672,"gy":2673,"Ġ,":2674,"ason":2675,"edit":2676,"Limit":2677,"buffer":2678,"ailable":2679,"setting":2680,"SEPARATOR":2681,"uzz":2682,"&$":2683,"rs":2684,"actual":2685,"vision":2686,"cond":2687,"Formatter":2688,"Point":2689,"getData":2690,"ymbol":2691,"DATE":2692,"Ġ],<":2693,"verter":2694,"Folder":2695,"16":2696,"Ġtime":2697,"ĠCh":2698,"()));<":2699,">]),<":2700,"Lay":2701,"agent":2702,"Translation":2703,"Ġbase":2704,"optional":2705,"CA":2706,"Ġit":2707,"ĠCol":2708,"Ġ{}<":2709,"assoc":2710,"Ġ),":2711,"Ġun":2712,"player":2713,"resolve":2714,"diff":2715,"Details":2716,"icate":2717,"setopt":2718,"Tree":2719,"Ġcall":2720,"img":2721,"full":2722,"Ġstrpos":2723,"Mapper":2724,"media":2725,"ank":2726,"getUser":2727,"ormalizer":2728,"Ġparse":2729,"cr":2730,"THOD":2731,"Ġ?:":2732,"Stack":2733,"tab":2734,"VALUE":2735,"mysql":2736,"upload":2737,"gan":2738,"FO":2739,"ao":2740,"Authentic":2741,"loat":2742,"ep":2743,"HTML":2744,"ernel":2745,"cap":2746,"RECTORY":2747,"Rules":2748,"Select":2749,"clone":2750,"ĠSe":2751,"deo":2752,"iled":2753,"IE":2754,"Position":2755,"Lib":2756,"SION":2757,"etwork":2758,"words":2759,"Next":2760,"convert":2761,"ONE":2762,"FAULT":2763,"loaded":2764,"bers":2765,"Platform":2766,"uzzle":2767,"left":2768,"If":2769,"icro":2770,"The":2771,"Width":2772,"ades":2773,"Fin":2774,"question":2775,"ĠStr":2776,"Ġp":2777,"cent":2778,"Ġstrtolower":2779,"trig":2780,"Pos":2781,"original":2782,"term":2783,"ik":2784,"Shop":2785,"Uuid":2786,"olu":2787,"ample":2788,"jection":2789,"Read":2790,"Policy":2791,"sive":2792,"ification":2793,"ield":2794,"Sp":2795,"11":2796,"cer":2797,"assertFalse":2798,">]))<":2799,"Processor":2800,"shift":2801,"report":2802,"Columns":2803,"ClassName":2804,"Callback":2805,"src":2806,"criteria":2807,"havior":2808,"spl":2809,"Ġstrto":2810,"Services":2811,"CI":2812,"chr":2813,"cat":2814,"(!$":2815,"METHOD":2816,"directory":2817,"ff":2818,"ested":2819,"Part":2820,"Facades":2821,"Agent":2822,"inary":2823,")));<":2824,"Site":2825,"trigger":2826,"ĠCURLOPT":2827,"lex":2828,"Customer":2829,"60":2830,"Listener":2831,"validation":2832,"req":2833,"extra":2834,"Multi":2835,"button":2836,"Report":2837,"lines":2838,"mount":2839,"isting":2840,"rel":2841,"Tags":2842,"NOT":2843,"allowed":2844,"trait":2845,"();":2846,"Ġhtml":2847,"25":2848,"uc":2849,"chars":2850,"Ġmysql":2851,"Sn":2852,"del":2853,"lear":2854,"Controllers":2855,">)));<":2856,"road":2857,"ged":2858,"Ġbuild":2859,"right":2860,"rategy":2861,"Criteria":2862,"Bus":2863,"tination":2864,"real":2865,"Min":2866,"CODE":2867,"Many":2868,"Kernel":2869,"cords":2870,"chedule":2871,"QU":2872,"card":2873,"leg":2874,"HTTP":2875,"IP":2876,"numeric":2877,"ĠDe":2878,"tpl":2879,"exec":2880,"ggreg":2881,"ategories":2882,"annot":2883,"ternal":2884,"profile":2885,"tree":2886,">]=$":2887,"tableName":2888,"mote":2889,"Ġ[],<":2890,"Range":2891,"Connector":2892,"crypt":2893,"Operation":2894,"arbon":2895,"<<":2896,"copy":2897,"Notification":2898,"ĠeZ":2899,"ĠUn":2900,"space":2901,"only":2902,"ĠTY":2903,"proto":2904,"ĠAuth":2905,"Ori":2906,"rest":2907,"Receive":2908,"{$":2909,"getResponse":2910,"previous":2911,"Ġintval":2912,"Subscri":2913,"parsed":2914,"css":2915,"First":2916,"ld":2917,"Ġcheck":2918,"common":2919,"drop":2920,"PDO":2921,"Enabled":2922,"18":2923,"Timestamp":2924,"userId":2925,"DataType":2926,"fs":2927,"other":2928,"pers":2929,"ĠDrupal":2930,"clean":2931,"TA":2932,"HIR":2933,"Login":2934,"Ship":2935,"SH":2936,"events":2937,"Ġg":2938,"ods":2939,"country":2940,"ority":2941,"special":2942,"Eloquent":2943,"alog":2944,"war":2945,"dom":2946,"Ġconfig":2947,"ilter":2948,"Down":2949,"over":2950,"Fail":2951,"UB":2952,"aniti":2953,"Ġh":2954,"statement":2955,"ses":2956,"Script":2957,"ND":2958,"lated":2959,"Graph":2960,"OM":2961,"ported":2962,"com":2963,"Av":2964,"cookie":2965,"router":2966,"fill":2967,"Reader":2968,"STRING":2969,"IL":2970,"ORT":2971,"strings":2972,"scription":2973,"ĠEx":2974,"ĠAs":2975,"igh":2976,"driver":2977,"Amount":2978,"classes":2979,"scope":2980,"30":2981,"Open":2982,"short":2983,"created":2984,"Ġfind":2985,"ĠComp":2986,"Total":2987,"year":2988,"ĠShopware":2989,"expression":2990,"ĠGet":2991,"Ter":2992,"idden":2993,"tiv":2994,"Change":2995,"Aggreg":2996,"().<":2997,"Button":2998,"cart":2999,"iables":3000,"ixed":3001,"cel":3002,"Te":3003,">},<":3004,"tend":3005,"jax":3006,"ĠDI":3007,"olean":3008,"names":3009,"Ms":3010,"clear":3011,"([$":3012,"eet":3013,"expr":3014,"Host":3015,"Sal":3016,"feed":3017,"PARAM":3018,"loader":3019,">][]":3020,"writer":3021,"ĠFile":3022,"ination":3023,"Day":3024,"Descriptor":3025,"Ġb":3026,"js":3027,"export":3028,"reflection":3029,"COL":3030,"yield":3031,"Methods":3032,"..$":3033,"primary":3034,"ability":3035,"head":3036,"range":3037,"upper":3038,"elements":3039,"eta":3040,"CMS":3041,"Offset":3042,"ĠRun":3043,"auto":3044,"Ġ@":3045,"Traits":3046,"ise":3047,"istence":3048,"Join":3049,"Assert":3050,"constraint":3051,"random":3052,"Wri":3053,"details":3054,">])->":3055,"Ġhandle":3056,"Ġ&&<":3057,"upported":3058,"Ġdeclare":3059,"unique":3060,"ENT":3061,"Ġor":3062,"Mark":3063,"lush":3064,"ById":3065,"unit":3066,"RuntimeException":3067,"Endpoint":3068,"Currency":3069,"ating":3070,"Origin":3071,"istory":3072,"getType":3073,"->__":3074,"Statement":3075,"shouldReceive":3076,"az":3077,"Display":3078,"encoding":3079,"ait":3080,"variable":3081,"reference":3082,"Elements":3083,"Engine":3084,"pass":3085,"Renderer":3086,"Af":3087,"Throw":3088,"#[":3089,"Ġand":3090,"StatusCode":3091,"before":3092,"ater":3093,"coder":3094,"Sk":3095,"]->":3096,"soc":3097,"__,":3098,"ĠgetName":3099,"XT":3100,"cred":3101,"Messages":3102,"VALI":3103,"Router":3104,"Rest":3105,"udi":3106,"ET":3107,"ings":3108,"getContent":3109,"Debug":3110,"operator":3111,"Pattern":3112,"Middleware":3113,"ĠY":3114,"endar":3115,"Ġ?>":3116,"groups":3117,"ables":3118,"contact":3119,"orderBy":3120,"stdClass":3121,"mapping":3122,"bot":3123,"Doctrine":3124,"TER":3125,"Broad":3126,"required":3127,"getAttribute":3128,"ormalize":3129,")))":3130,"DEFAULT":3131,"HE":3132,"ĠInput":3133,"Locator":3134,"Facade":3135,"ĠType":3136,"vers":3137,">#[":3138,"ifier":3139,"QueryBuilder":3140,"ĠController":3141,"ached":3142,"found":3143,"formation":3144,"ANG":3145,"ĠApi":3146,"Cred":3147,"IC":3148,"getBody":3149,"ORD":3150,"trace":3151,"Allowed":3152,"modules":3153,"frame":3154,"ĠPHPUnit":3155,"font":3156,"Ġ<?":3157,"Ġview":3158,"wrap":3159,"after":3160,"inner":3161,"ws":3162,"Pass":3163,"wo":3164,"ier":3165,"Laravel":3166,"BU":3167,"Success":3168,"ĠJson":3169,"ueprint":3170,"TIME":3171,"import":3172,"actions":3173,"cell":3174,"Ġrender":3175,"ĠDB":3176,"Di":3177,"zer":3178,"ln":3179,"?><":3180,"fail":3181,"optionalArgs":3182,"Constants":3183,"40":3184,"Auto":3185,"||":3186,"strtolower":3187,"Ġload":3188,"month":3189,"nt":3190,"Ġwith":3191,"enter":3192,"statusCode":3193,"expectException":3194,"Ġ){<":3195,"generator":3196,"LINE":3197,"step":3198,"ĠFI":3199,"selected":3200,"VI":3201,"NotFoundException":3202,"50":3203,"Logic":3204,"iod":3205,"Pag":3206,"Converter":3207,"gu":3208,"geo":3209,"crete":3210,"Ġread":3211,"Ab":3212,"RES":3213,"Ġremove":3214,"ci":3215,"Ġt":3216,"ĠGener":3217,"endpoint":3218,"market":3219,"BO":3220,"Local":3221,"Tokens":3222,"Required":3223,"board":3224,"Port":3225,"ĠEvent":3226,"layout":3227,"entials":3228,"getRequest":3229,"Simple":3230,"cipient":3231,"Import":3232,"Scope":3233,"Cap":3234,"COM":3235,"Results":3236,"ĠRef":3237,"tistics":3238,"install":3239,"ĠTrans":3240,"Fra":3241,"Ġvalidate":3242,"Injection":3243,"def":3244,"Groups":3245,"ause":3246,"Ġapply":3247,"cursive":3248,"Play":3249,"Widget":3250,"0020":3251,"Ġ((":3252,"invoke":3253,"sheet":3254,"Proxy":3255,"pages":3256,"+$":3257,"Cell":3258,"ek":3259,"Shared":3260,"imen":3261,"tial":3262,"ster":3263,"izer":3264,"conds":3265,"ide":3266,"Strategy":3267,"15":3268,"ctive":3269,"Execu":3270,"aces":3271,"Height":3272,"rowser":3273,"Grid":3274,"Only":3275,"resolver":3276,"SET":3277,"Ġcomp":3278,"dispatch":3279,"sn":3280,">@":3281,"transform":3282,"ont":3283,"graph":3284,"Raw":3285,"ĠTestCase":3286,"helpers":3287,"IS":3288,"symbol":3289,"etime":3290,"BA":3291,"grid":3292,"Card":3293,"queryParameters":3294,"socket":3295,"Section":3296,"fileName":3297,"verse":3298,"Ġregister":3299,">||":3300,"OUT":3301,"Arguments":3302,"Cre":3303,"iation":3304,"publish":3305,"Redirect":3306,"timeout":3307,"Fix":3308,">)),<":3309,"initializ":3310,"imension":3311,"implode":3312,"very":3313,"ters":3314,"translate":3315,"tify":3316,"Wrap":3317,"ĠEntity":3318,"Classes":3319,"extract":3320,"Msg":3321,"asset":3322,"integer":3323,"ffix":3324,"Country":3325,"ple":3326,"HttpFoundation":3327,"OK":3328,"->{$":3329,"rary":3330,"Expr":3331,"Upload":3332,"Public":3333,"Ġmb":3334,"firm":3335,"Zone":3336,"FIX":3337,"Rate":3338,"split":3339,"Full":3340,"faces":3341,"her":3342,"antity":3343,"zip":3344,"Environment":3345,"Utility":3346,"VERSION":3347,"Rows":3348,"swer":3349,"fieldName":3350,"andReturn":3351,"cm":3352,">)))":3353,"Load":3354,"Compiler":3355,"ĠData":3356,"chunk":3357,"TABLE":3358,"ĠRuntimeException":3359,"mise":3360,"Parts":3361,"ĠgetS":3362,"ences":3363,"Protocol":3364,"Tool":3365,"LTER":3366,"fp":3367,"Created":3368,"sy":3369,"CR":3370,"yd":3371,"NS":3372,"Tax":3373,">]=<":3374,"Equal":3375,"Cart":3376,"Requests":3377,"adapter":3378,"Contains":3379,"Authentication":3380,"lations":3381,"(&$":3382,"Handle":3383,"calar":3384,"ALL":3385,"contentType":3386,"Works":3387,"acter":3388,"ĠtestGet":3389,"OPTION":3390,"operation":3391,"ible":3392,"gress":3393,"inst":3394,"Ġto":3395,"::_":3396,"Integer":3397,"grade":3398,"flags":3399,"Layout":3400,"Setting":3401,"RequestInterface":3402,"Ip":3403,"configuration":3404,"DependencyInjection":3405,"anitize":3406,"24":3407,"nullable":3408,"FORM":3409,"RAN":3410,"Ġform":3411,"MIN":3412,"::$_":3413,"shop":3414,"==":3415,"acy":3416,"track":3417,"cast":3418,"FUN":3419,"CHE":3420,"JSON":3421,"lot":3422,"ServiceProvider":3423,"eek":3424,"specialchars":3425,"Behavior":3426,"Analy":3427,"FF":3428,"Buf":3429,"getCode":3430,"thumb":3431,"destination":3432,"elp":3433,"Dep":3434,"elgg":3435,"conf":3436,"Ġclear":3437,"Box":3438,"SC":3439,"Dat":3440,"rt":3441,"ĠForm":3442,"Gateway":3443,"structure":3444,"Contact":3445,"Transformer":3446,"Ġ->":3447,"ganization":3448,"Mer":3449,"Static":3450,"Users":3451,"255":3452,"Pool":3453,"Ġon":3454,"DAT":3455,"Finder":3456,"uzzleHttp":3457,"Member":3458,"topic":3459,"WM":3460,"Enti":3461,"enable":3462,"prev":3463,"wpdb":3464,"Ġ:<":3465,"Feed":3466,"pdf":3467,"Flag":3468,"depth":3469,"ities":3470,"ranch":3471,"translator":3472,"MODE":3473,"tao":3474,"ĠIm":3475,"Track":3476,"force":3477,"Validate":3478,"blog":3479,"notification":3480,"contains":3481,"cheme":3482,"Invo":3483,"dest":3484,"Ġ($_":3485,"Use":3486,"Buffer":3487,"After":3488,"Nodes":3489,"services":3490,"AC":3491,"Filename":3492,"iterator":3493,"ContainerInterface":3494,"BroadWorks":3495,"ype":3496,"getOption":3497,"ZE":3498,"equ":3499,"Edit":3500,"ĠHtml":3501,"ĠWeb":3502,"URI":3503,"quence":3504,"Entities":3505,"Write":3506,"Ġinit":3507,"32":3508,"UM":3509,"ĠWP":3510,"rator":3511,"chant":3512,"setAttribute":3513,"need":3514,"IG":3515,"iness":3516,"Op":3517,"Lock":3518,"phpcs":3519,"MESS":3520,"__.<":3521,"bytes":3522,">},":3523,"foo":3524,"actor":3525,"lease":3526,"pop":3527,"ĠDIRECTORY":3528,"onom":3529,"Top":3530,"Blueprint":3531,"agento":3532,"Statistics":3533,"TEXT":3534,"Cookie":3535,"LANG":3536,"application":3537,"ĠReflection":3538,"Subject":3539,"dec":3540,"updated":3541,"Filesystem":3542,"Sing":3543,"BroadWorksConnector":3544,"Ocip":3545,"parator":3546,"Excel":3547,"Fetch":3548,"translation":3549,"Ġ=<":3550,"links":3551,"Fa":3552,"holder":3553,"Ġexecute":3554,"Chang":3555,"Ġl":3556,"Normalizer":3557,"okup":3558,"idx":3559,"returnValue":3560,"compare":3561,"Ġprocess":3562,"-<":3563,"13":3564,"Ġendif":3565,"Ġurl":3566,">__":3567,"phpcsFile":3568,"phone":3569,"Ġ?><?<":3570,"article":3571,"itional":3572,"Permissions":3573,"Ġ||<":3574,"chang":3575,"DS":3576,"Gu":3577,"uages":3578,"secret":3579,"ĠInvalid":3580,"mime":3581,"Operator":3582,"posts":3583,"nodes":3584,"([]":3585,"anel":3586,"rie":3587,"cmd":3588,"Over":3589,"entities":3590,"subscri":3591,"ĠConfig":3592,"verify":3593,"ĠU":3594,"disable":3595,"float":3596,"team":3597,"erializ":3598,"getPath":3599,"getRe":3600,"Routing":3601,"ĠsetUp":3602,"([":3603,"Step":3604,"getTable":3605,"fn":3606,"EventDispatcher":3607,"ĠMod":3608,"TED":3609,"fact":3610,"Construct":3611,"ati":3612,"Ġw":3613,"Ġoffset":3614,"Ġgenerate":3615,"ĠObject":3616,"ferences":3617,"RED":3618,"ĠClo":3619,"plan":3620,"roles":3621,"ĠTh":3622,"ĠSet":3623,"ini":3624,"so":3625,"begin":3626,"iant":3627,"stop":3628,"paths":3629,"setName":3630,"signature":3631,"Helpers":3632,"reader":3633,"ĠCollection":3634,"LOG":3635,"shouldBe":3636,"ĠLe":3637,"ical":3638,"attachment":3639,"Repe":3640,"FHIR":3641,"Before":3642,"flush":3643,"Pres":3644,"Bag":3645,"ĠPay":3646,"Ġcurl":3647,"Ġredirect":3648,"aml":3649,"invalid":3650,"explode":3651,"ĠHttp":3652,"Assoc":3653,"Payload":3654,"FileName":3655,"tripe":3656,"El":3657,"Commands":3658,"ĠNode":3659,"ĠSy":3660,"Once":3661,"Main":3662,"calcul":3663,"Resources":3664,"heet":3665,"assertCount":3666,"images":3667,"catch":3668,"Selector":3669,"Rol":3670,"ires":3671,">[$":3672,"stat":3673,"enabled":3674,"illing":3675,"related":3676,"qb":3677,"ĠCommand":3678,"viders":3679,"skip":3680,"Ġr":3681,"ances":3682,"records":3683,"redis":3684,"PREFIX":3685,"createMock":3686,"SPA":3687,"()[<":3688,"Du":3689,"FUNCTION":3690,"CESS":3691,"Cor":3692,"Save":3693,"optParams":3694,"chat":3695,"Components":3696,"mysqli":3697,"sible":3698,"second":3699,"Ġprint":3700,"filePath":3701,"methods":3702,"ĠService":3703,"Primary":3704,"Visitor":3705,"FixtureC":3706,"categories":3707,"ense":3708,"PI":3709,"Ne":3710,"erce":3711,"ĠPro":3712,"Theme":3713,"AND":3714,"inator":3715,"boot":3716,"Ġ[]):":3717,"Backend":3718,"uuid":3719,"Can":3720,"Build":3721,"Font":3722,"Ġindex":3723,"])<":3724,"pect":3725,"1000":3726,"leted":3727,"Ġrun":3728,">?>":3729,"system":3730,"Original":3731,"Actions":3732,"ai":3733,"requ":3734,"tables":3735,"cf":3736,"ĠToken":3737,"Ġ<<<":3738,"region":3739,"Ġnamespace":3740,"Ġclone":3741,"defaults":3742,"Ġfilter":3743,"asic":3744,"etect":3745,"CF":3746,"ES":3747,"Ġaction":3748,"Device":3749,"Ġ;<":3750,"assertNot":3751,"faker":3752,"Children":3753,"Assign":3754,"additional":3755,"Subscriber":3756,"strap":3757,"gen":3758,"teg":3759,">))->":3760,"Global":3761,"prec":3762,"commit":3763,"permissions":3764,"olution":3765,"device":3766,"sv":3767,"util":3768,"Mis":3769,"Identity":3770,"NONE":3771,"ude":3772,"tries":3773,"datas":3774,"ĠNe":3775,"car":3776,"Serialize":3777,"Icon":3778,"ancel":3779,"We":3780,"pk":3781,"500":3782,"Transport":3783,"Cat":3784,"Cms":3785,"ized":3786,"ĠClient":3787,"cc":3788,"MI":3789,"SA":3790,"pdo":3791,"Interval":3792,"assertNull":3793,"Extra":3794,"writeln":3795,"simp":3796,"Detail":3797,"flash":3798,"Tools":3799,"ĠQuery":3800,"Aggregate":3801,"nown":3802,"agg":3803,"Fore":3804,"SPACE":3805,"ors":3806,"roll":3807,"repe":3808,"Ġdirname":3809,"nav":3810,"Filters":3811,"Contents":3812,"platform":3813,"available":3814,"repo":3815,"Objects":3816,"Information":3817,"Place":3818,"depend":3819,"404":3820,"(($":3821,"Twig":3822,"ete":3823,"LOW":3824,"bit":3825,"udio":3826,"curr":3827,"ynam":3828,"hex":3829,"PUT":3830,"Ġmysqli":3831,"__);<":3832,"+<":3833,"Interfaces":3834,"middleware":3835,"VALID":3836,"Short":3837,">])){<":3838,"reason":3839,"pid":3840,"Stripe":3841,"eries":3842,"(.":3843,"Stub":3844,"Year":3845,"ignore":3846,"Video":3847,"Closure":3848,"RepositoryInterface":3849,"Hand":3850,"ĠCo":3851,"Migrations":3852,"Ġstrtotime":3853,"priority":3854,"ps":3855,"getConfig":3856,"collect":3857,"GPBType":3858,"Book":3859,"pha":3860,"foreign":3861,">]],<":3862,"HEAD":3863,"pted":3864,"sig":3865,"timezone":3866,"ĠPhpParser":3867,"Persistence":3868,"proxy":3869,"Checker":3870,"remote":3871,"Async":3872,"ench":3873,"ium":3874,"getQuery":3875,"()]":3876,"allback":3877,"ries":3878,"VENT":3879,"routes":3880,"Available":3881,"FactoryInterface":3882,"counter":3883,"ĠTrue":3884,"umber":3885,"wd":3886,"Decl":3887,"Ġdo":3888,"queryBuilder":3889,"Ġ)->":3890,"variables":3891,"imal":3892,"aker":3893,"side":3894,"Tables":3895,"Ġez":3896,"ĠCarbon":3897,"llable":3898,"Ġsave":3899,"isValid":3900,"area":3901,"person":3902,"sm":3903,"desc":3904,"imiter":3905,"ĠMessage":3906,"DATA":3907,"lius":3908,"Install":3909,"comments":3910,"ground":3911,"Calcul":3912,"udent":3913,"Constructor":3914,"getStatusCode":3915,"Inst":3916,"bed":3917,"conditions":3918,"tex":3919,"userid":3920,"onomy":3921,"Are":3922,"verage":3923,"loop":3924,"Mo":3925,"nail":3926,">[[<":3927,"ValueException":3928,"valu":3929,"Bar":3930,"components":3931,"utable":3932,"tificate":3933,"ContentType":3934,"ManagerInterface":3935,"ume":3936,"plugins":3937,"men":3938,"CRE":3939,"checkString":3940,"Called":3941,"Psr":3942,"Ġprivate":3943,"Ġfrom":3944,"answer":3945,"Attach":3946,"Ġ[]);<":3947,"Secret":3948,"atar":3949,"game":3950,"internal":3951,"leton":3952,"ĠPDO":3953,"STATE":3954,"annotation":3955,"ĠX":3956,"authentic":3957,"Sl":3958,"simple":3959,"Question":3960,"Insert":3961,"submit":3962,"Me":3963,"ome":3964,"OF":3965,"Attr":3966,"ĠOut":3967,"ca":3968,"syllable":3969,"ongs":3970,"clos":3971,"nb":3972,"HO":3973,"ĠCreate":3974,"video":3975,"roy":3976,"APP":3977,"crumb":3978,"stats":3979,"Repeated":3980,"ĠConcrete":3981,"Ġcurrent":3982,"Parse":3983,"boolean":3984,"Ġbreak":3985,"Person":3986,"istration":3987,"iki":3988,"Functions":3989,"Structure":3990,"Sort":3991,"bin":3992,"Ġdie":3993,"gor":3994,"cached":3995,"regex":3996,"FixtureB":3997,"ĠTwig":3998,"pho":3999,"imum":4000,"migration":4001,"Def":4002,"CATE":4003,"TextStatistics":4004,"actory":4005,"extensions":4006,"network":4007,"exa":4008,"erialize":4009,"Export":4010,"INFO":4011,"Authorization":4012,"shot":4013,"ĠTYPE":4014,"Ge":4015,"Ġdb":4016,"syllableCount":4017,"icrotime":4018,"ours":4019,"httpBody":4020,"Flash":4021,"JE":4022,"stru":4023,"ĠNo":4024,"lean":4025,"ĠMon":4026,"amil":4027,"opts":4028,"getP":4029,"UNT":4030,"ĠString":4031,"()),<":4032,"upon":4033,"olo":4034,"getB":4035,"bucket":4036,"ven":4037,"ĠEn":4038,"ague":4039,"ynamic":4040,"ored":4041,"Hook":4042,"Failed":4043,"score":4044,"alance":4045,"Wrapper":4046,"SD":4047,"LU":4048,"positories":4049,"net":4050,"Timeout":4051,"elongs":4052,"draw":4053,"signed":4054,"))->":4055,"ince":4056,"Foreign":4057,"ĠSil":4058,"ucfirst":4059,"IVE":4060,"Month":4061,"Frame":4062,"creen":4063,"My":4064,"OS":4065,"sys":4066,"FilePath":4067,"Sales":4068,"NG":4069,"Ġresponse":4070,"Sum":4071,"kind":4072,"getCurrent":4073,"security":4074,"getDefault":4075,"ĠHT":4076,"RepeatedField":4077,"cure":4078,"ular":4079,"Player":4080,"serializer":4081,"isteners":4082,"LogicException":4083,"Modules":4084,"AccessToken":4085,"findOne":4086,"getC":4087,"ied":4088,"ĠJSON":4089,"ision":4090,"engine":4091,">]),":4092,"registry":4093,"rc":4094,"dispatcher":4095,"ĠField":4096,"bexa":4097,"Com":4098,"charset":4099,"OptionsResolver":4100,"normalize":4101,"InputInterface":4102,"400":4103,"icense":4104,"Ġchr":4105,"amin":4106,"ResponseInterface":4107,"setParameter":4108,"filesystem":4109,"Ġ];<":4110,"activity":4111,"Ġ%":4112,"soft":4113,"invoice":4114,"listener":4115,"ETCH":4116,"aggreg":4117,"tid":4118,"ĠOpen":4119,"ATT":4120,"Sw":4121,"ride":4122,"download":4123,"Ġ,<":4124,"unlink":4125,"Ġprotected":4126,"reply":4127,"itial":4128,"Annotations":4129,"elongsTo":4130,"iver":4131,"encies":4132,"resourceOwner":4133,"Vars":4134,"interval":4135,"Modified":4136,"Tick":4137,"Ġsend":4138,"company":4139,"pol":4140,"aign":4141,"goods":4142,"getRepository":4143,"=>$":4144,"ins":4145,"atable":4146,"ampaign":4147,"rece":4148,"Relationship":4149,"CURLOPT":4150,"refresh":4151,"endor":4152,"aration":4153,"Ġhtmlspecialchars":4154,"assertArray":4155,"IO":4156,"Constant":4157,"appendChild":4158,"eder":4159,"Send":4160,"ward":4161,"attrs":4162,"gorith":4163,"ĠgetId":4164,"long":4165,"Localiz":4166,"ticket":4167,"Ptr":4168,"tom":4169,"dl":4170,"urch":4171,"Throwable":4172,"Shipping":4173,"setValue":4174,"astic":4175,"expire":4176,"Roles":4177,"bound":4178,"Ġreset":4179,"ĠOrder":4180,"warning":4181,"Off":4182,"Ġezc":4183,"environment":4184,"cons":4185,"ivery":4186,"getField":4187,"shipping":4188,"ison":4189,"Updated":4190,"FETCH":4191,"HEADER":4192,"ASS":4193,"Single":4194,"JECT":4195,"pet":4196,"cha":4197,"Constraints":4198,"repeat":4199,"Ġround":4200,"ĠIbexa":4201,"Activity":4202,"detail":4203,"products":4204,"MAX":4205,"vc":4206,"anner":4207,"SY":4208,"pute":4209,"ĠAc":4210,"Register":4211,"styles":4212,"Ob":4213,"ful":4214,"ural":4215,"Signature":4216,"Symfony":4217,"Arch":4218,"Org":4219,"Network":4220,"Article":4221,"backup":4222,"Vo":4223,"support":4224,"entation":4225,"tended":4226,"rect":4227,"Runtime":4228,"wf":4229,"PAGE":4230,"Ġfunc":4231,"Bytes":4232,"ĠAt":4233,"utolo":4234,"segment":4235,"subscription":4236,"andard":4237,"mac":4238,"Pages":4239,"CFG":4240,"orders":4241,"mk":4242,"photo":4243,"ITY":4244,"Private":4245,"ĠTYPO":4246,"ero":4247,"History":4248,"Dimension":4249,"tegration":4250,"Manage":4251,"UserId":4252,"slice":4253,"mask":4254,"ĠMigration":4255,"days":4256,"schedule":4257,"ĠSilver":4258,"Ġmd":4259,"OC":4260,"HasKey":4261,"AU":4262,"defaultValue":4263,"OB":4264,"google":4265,"DBAL":4266,"dig":4267,"deserialize":4268,"Flow":4269,"ULE":4270,"ĠMock":4271,">($":4272,"getKey":4273,"yker":4274,"protocol":4275,"MESSAGE":4276,"FER":4277,"au":4278,"Non":4279,"ĠView":4280,">]);":4281,"OAuth":4282,"pryker":4283,"Business":4284,"Ġstrtoupper":4285,"batch":4286,"suffix":4287,"Css":4288,"Phone":4289,"atri":4290,"Bad":4291,"Ġelgg":4292,"-$":4293,"Qual":4294,"GER":4295,"fclose":4296,"indow":4297,"Invoice":4298,"sender":4299,"aster":4300,"consum":4301,"ĠClosure":4302,"ordinate":4303,"ĠText":4304,"dk":4305,"ĠClass":4306,"Js":4307,"tbl":4308,"Ġphp":4309,"Show":4310,"pad":4311,"Collector":4312,"Catalog":4313,"createFrom":4314,"eto":4315,"Ġfetch":4316,"addColumn":4317,"dt":4318,"getHeader":4319,"direction":4320,"entityManager":4321,"Ġth":4322,"respon":4323,"tice":4324,"cms":4325,"ĠSimple":4326,"transport":4327,"views":4328,"Workflow":4329,"ĠTra":4330,"ĠNot":4331,"Company":4332,"ĠSpryker":4333,"supported":4334,"labels":4335,"dateTime":4336,"Sc":4337,"calendar":4338,"objects":4339,"Right":4340,"Library":4341,"Bot":4342,"iles":4343,"++$":4344,"recipient":4345,"pati":4346,"selector":4347,"ĠAn":4348,"Gra":4349,"ipe":4350,"existing":4351,"Ġpo":4352,"Feature":4353,"Ġup":4354,"txt":4355,"Clause":4356,"Ġ[])":4357,"Imm":4358,"stub":4359,"cluded":4360,"Links":4361,"Ind":4362,"wil":4363,"getAll":4364,"Binary":4365,"forum":4366,"Paths":4367,"ĠError":4368,"Bind":4369,"renderer":4370,"arison":4371,"amily":4372,"accept":4373,"Should":4374,"Ġlist":4375,"queryParams":4376,"rase":4377,"ROOT":4378,"ĠSw":4379,"Ġformat":4380,"ĠGuzzleHttp":4381,"Metric":4382,"Providers":4383,"eline":4384,">]];<":4385,"formatter":4386,">!":4387,"xpath":4388,"ĠstdClass":4389,"gram":4390,"olute":4391,"Composer":4392,"wait":4393,"Word":4394,"CLI":4395,"Batch":4396,"yy":4397,"ĠProduct":4398,"WN":4399,"Labels":4400,"DF":4401,"ette":4402,"duce":4403,"ĠCache":4404,"bs":4405,"deli":4406,"PHPUnit":4407,"ĠDE":4408,"userAgent":4409,"wilio":4410,"iss":4411,"HttpException":4412,"ĠCode":4413,"gateway":4414,"ĠDb":4415,"tick":4416,"HttpClient":4417,"corator":4418,"Chain":4419,"Pa":4420,"pool":4421,"Ġ++$":4422,"identity":4423,"activ":4424,"MIT":4425,"Kind":4426,"Diff":4427,"Lines":4428,"sem":4429,"mixed":4430,"persist":4431,"Plan":4432,"ront":4433,"AY":4434,"asy":4435,"FORMAT":4436,"atrix":4437,"loyment":4438,"ĠgetType":4439,"PH":4440,"Team":4441,"END":4442,"ĠOutput":4443,"Li":4444,"ajax":4445,"Mime":4446,"Matcher":4447,"erc":4448,"Period":4449,"returnType":4450,"aminas":4451,"REQUI":4452,"(...$":4453,"strto":4454,"BUG":4455,"ferred":4456,"VICE":4457,"CWM":4458,"cmp":4459,"ashes":4460,"UND":4461,"DIRECTORY":4462,">]=":4463,"okies":4464,"ĠAdmin":4465,"ĠProp":4466,"URE":4467,"Delivery":4468,"MAN":4469,"enum":4470,"expectedValueException":4471,"CS":4472,"Fixer":4473,"ĠDis":4474,"ĠSilverStripe":4475,">]==<":4476,"ByName":4477,"ibility":4478,"idate":4479,"retrie":4480,"igation":4481,"Spl":4482,"getMockBuilder":4483,"Unique":4484,"alk":4485,"atten":4486,"Stats":4487,"dev":4488,"Loop":4489,"achine":4490,"bum":4491,"initOnce":4492,"GPBMetadata":4493,"ĠComm":4494,"marty":4495,"arti":4496,"tool":4497,"when":4498,"EVENT":4499,"LIC":4500,"getFile":4501,"INVALID":4502,"Ġwrite":4503,"SIZE":4504,"edi":4505,"gments":4506,"Remove":4507,"ransition":4508,"DOM":4509,"note":4510,"single":4511,"Stmt":4512,"gorithm":4513,"RAY":4514,"LoggerInterface":4515,"ollow":4516,"ORDER":4517,"ridge":4518,"ĠTable":4519,"va":4520,"ACT":4521,"getParam":4522,"azy":4523,"Defaults":4524,"blocks":4525,"War":4526,"crement":4527,"Ġ...$":4528,"uses":4529,"ĠFILTER":4530,"then":4531,"ssl":4532,"Ġconfigure":4533,"Ġo":4534,"Socket":4535,"IF":4536,"methodName":4537,"taxonomy":4538,"cid":4539,"getConnection":4540,"PageToken":4541,"used":4542,"Dial":4543,"Region":4544,"ĠImage":4545,"ĠAdd":4546,"ges":4547,"LOCK":4548,"serv":4549,"fwrite":4550,">]]);<":4551,"sizeof":4552,"revision":4553,"rontend":4554,"andidate":4555,"pagination":4556,"andWhere":4557,"plic":4558,"PEN":4559,"closure":4560,"Encoding":4561,"COMP":4562,"la":4563,"ĠLaravel":4564,"TableName":4565,"Without":4566,"Forms":4567,"policy":4568,"propertyName":4569,"Organization":4570,"rec":4571,"getClass":4572,"loor":4573,"ĠDatabase":4574,"beta":4575,"Spe":4576,"getHeaders":4577,"scheme":4578,"hidden":4579,"Repo":4580,"getProperty":4581,"off":4582,"Nav":4583,"addSql":4584,"motion":4585,"Iss":4586,"REG":4587,"ĠUrl":4588,"BASE":4589,"*<":4590,"sertion":4591,"Pe":4592,"ĠAl":4593,"getModel":4594,"keyword":4595,"aved":4596,"ashboard":4597,"assertArrayHasKey":4598,"Credentials":4599,"ĠPage":4600,"backend":4601,"chedul":4602,"aging":4603,"Dev":4604,"Quote":4605,"priv":4606,"Cho":4607,"ases":4608,"OUR":4609,"modified":4610,"ĠSylius":4611,"Den":4612,"MethodCall":4613,"hat":4614,"Ext":4615,"complete":4616,"TAG":4617,"scalar":4618,"TES":4619,"translations":4620,"duration":4621,"Repositories":4622,"ential":4623,"href":4624,"RANS":4625,"execu":4626,"AwareInterface":4627,"COUNT":4628,"Ġ();<":4629,"tcha":4630,"ĠCriter":4631,"Us":4632,"tifi":4633,"Bench":4634,"confirm":4635,"alpha":4636,"mpdf":4637,"ived":4638,"analy":4639,"Related":4640,"Schedule":4641,"MB":4642,"FT":4643,"city":4644,"less":4645,"setup":4646,"peg":4647,"Multiple":4648,"Ġ?<":4649,"Translator":4650,"Execute":4651,"Zend":4652,"ĠResource":4653,"rawler":4654,"Routes":4655,"Generated":4656,"Username":4657,"ĠContainer":4658,"best":4659,"stackPtr":4660,"sanitize":4661,"entries":4662,"iterable":4663,"ans":4664,"Sel":4665,"LETE":4666,"Space":4667,"Carbon":4668,"ene":4669,"WAR":4670,"Trace":4671,"home":4672,"Extensions":4673,"perm":4674,"ĠLang":4675,"Slug":4676,"Tes":4677,"Ġshow":4678,"Pointer":4679,"Execution":4680,"olation":4681,"ĠLeague":4682,"getParameter":4683,"SU":4684,"ReturnType":4685,"getEntity":4686,"layer":4687,"Left":4688,"Immutable":4689,"PRI":4690,"apshot":4691,"Chat":4692,"imeos":4693,"andom":4694,"addChild":4695,"Ġmake":4696,"composer":4697,"Ġfopen":4698,"Ġdefined":4699,"ĠQ":4700,"Bucket":4701,"pto":4702,"ADMIN":4703,"ru":4704,"][]":4705,"Ġimage":4706,"Ads":4707,"ĠLaminas":4708,"Missing":4709,"Regex":4710,"getF":4711,"Lookup":4712,"Relations":4713,">],$":4714,"Ġrtrim":4715,"ĠValues":4716,"ured":4717,"cfg":4718,"CoreBundle":4719,"Sheet":4720,"ProviderInterface":4721,"agger":4722,"cryption":4723,"Fixtures":4724,"SP":4725,"__(<":4726,"coll":4727,"]));<":4728,"Area":4729,"cus":4730,"Game":4731,"ValueObject":4732,"ĠgetRe":4733,"terms":4734,"Ġpost":4735,"atures":4736,"restore":4737,"quantity":4738,"exclude":4739,"EXT":4740,"ventory":4741,"ifest":4742,"Term":4743,"relationship":4744,"Subscription":4745,"equal":4746,"RET":4747,"ctions":4748,"CUR":4749,"ApiClient":4750,"GIN":4751,"comb":4752,"!=<":4753,"scale":4754,"Duration":4755,"progress":4756,"Copy":4757,"dn":4758,"ĠPost":4759,"Dump":4760,"ites":4761,"seconds":4762,"Reset":4763,"Mask":4764,"history":4765,"points":4766,"srf":4767,"initialize":4768,"indent":4769,"ticip":4770,"TENT":4771,"Ġcraft":4772,"Zed":4773,"tx":4774,"BE":4775,"robot":4776,"ouble":4777,"DEBUG":4778,"Plugins":4779,"Will":4780,"alcon":4781,"branch":4782,"READ":4783,"ĠContext":4784,"orter":4785,"ĠBo":4786,"External":4787,"ydrator":4788,"NING":4789,"cp":4790,"ĠCustom":4791,"(__(<":4792,"ĠMagento":4793,"KEN":4794,"ĠNeos":4795,"ĠCake":4796,"versation":4797,"commands":4798,"credentials":4799,"strip":4800,"just":4801,"ĠsetName":4802,"olume":4803,"MAGE":4804,"aim":4805,"fixt":4806,"HttpKernel":4807,"ĠCl":4808,"getClient":4809,"help":4810,"Submit":4811,"Find":4812,"Codes":4813,"ĠParser":4814,"separator":4815,"PC":4816,"argv":4817,"itter":4818,"Variables":4819,"members":4820,"requestParams":4821,"PR":4822,"BuilderInterface":4823,"ĠEl":4824,"thread":4825,"delivery":4826,"fd":4827,"notify":4828,"olid":4829,"sWith":4830,"Boot":4831,"Quantity":4832,"patie":4833,"Layer":4834,"leep":4835,"free":4836,"guid":4837,"origin":4838,"cursor":4839,"GRO":4840,"templates":4841,"Counter":4842,"shouldReturn":4843,"REQUIRED":4844,"senger":4845,">);?><?":4846,"Git":4847,"browser":4848,"nonce":4849,"ls":4850,"external":4851,"Ġserialize":4852,"bb":4853,"HandlerInterface":4854,"amespaces":4855,"bundle":4856,"getMethod":4857,"curren":4858,"serialized":4859,">)){<":4860,"marks":4861,"assets":4862,"kemon":4863,"ends":4864,"getService":4865,"ĠRoute":4866,"cnt":4867,"metric":4868,"LIST":4869,"OURCE":4870,"Ġexit":4871,"SUB":4872,"Ġmixed":4873,"UID":4874,"AUTH":4875,"ulk":4876,"Comments":4877,"Leg":4878,"Replace":4879,"Ġ<<":4880,"Extract":4881,"master":4882,"pected":4883,"unity":4884,"period":4885,"ending":4886,"Ġcompact":4887,"Cer":4888,"ĠFl":4889,"Priority":4890,"SCRI":4891,"ĠTe":4892,"resourcePath":4893,"Memory":4894,"minal":4895,"iration":4896,"hand":4897,"Jobs":4898,"Ġtrans":4899,"ario":4900,"Respon":4901,"ServerRequestInterface":4902,"LED":4903,"recursive":4904,"ĠCore":4905,"Have":4906,"ttl":4907,"OutputInterface":4908,"processor":4909,"]))<":4910,"ITE":4911,"WP":4912,"hip":4913,"fetchAll":4914,"ĠDi":4915,"ich":4916,"ormalized":4917,"summary":4918,"calculate":4919,"getError":4920,"OP":4921,"SSL":4922,"ĠSpatie":4923,"Zip":4924,"Ġrequest":4925,"Ġopen":4926,"Than":4927,"resources":4928,"Tab":4929,"tock":4930,"FILES":4931,";?><?":4932,"bindValue":4933,"exer":4934,"createElement":4935,"alled":4936,"cheduler":4937,"Redis":4938,"star":4939,"Checkout":4940,"multipart":4941,"ĠValidator":4942,"urchase":4943,"ĠDel":4944,"cessed":4945,"primaryKey":4946,"plier":4947,"mkdir":4948,"ging":4949,"orph":4950,"Worker":4951,"editor":4952,"ards":4953,"attemp":4954,"Big":4955,"ĠFilter":4956,"ĠSchema":4957,"Ġdown":4958,"chart":4959,"ute":4960,"ĠSub":4961,"Dao":4962,"ĠApplication":4963,"iqid":4964,"br":4965,"memory":4966,"ilities":4967,">[]":4968,"ĠList":4969,"ĠTwilio":4970,"ĠLog":4971,"Assets":4972,"vide":4973,"errs":4974,"Pdf":4975,"props":4976,"Bridge":4977,"Ġucfirst":4978,"__)":4979,"Ġmax":4980,"Like":4981,"gh":4982,"perform":4983,"porting":4984,"cribe":4985,"Promise":4986,"languages":4987,"worker":4988,"INTE":4989,"ippet":4990,"Setup":4991,"ĠReg":4992,"ĠOro":4993,"objWriter":4994,"LOAD":4995,"pret":4996,"NAMESPACE":4997,"Ġassert":4998,"Ġunset":4999,"Calendar":5000,"Ġq":5001,"Ġfore":5002,"ctx":5003,"ĠTemp":5004,"istent":5005,"compile":5006,"kernel":5007,"Ġgeo":5008,"ARY":5009,"reshold":5010,"Topic":5011,"character":5012,"thumbnail":5013,"fac":5014,"getUrl":5015,"dao":5016,"plicate":5017,"ctionary":5018,"accessToken":5019,"refer":5020,"Formats":5021,"Ġresolve":5022,"datetime":5023,"seek":5024,"pg":5025,"aggregate":5026,"rew":5027,"Func":5028,"Failure":5029,">++$":5030,"getResult":5031,"Go":5032,"ĠgetUser":5033,"Aimeos":5034,"Records":5035,"initial":5036,"Variant":5037,"PAY":5038,"gb":5039,"AST":5040,"formParams":5041,"placeholder":5042,"deleted":5043,"Ġpro":5044,"ummy":5045,"Ġmicrotime":5046,"ope":5047,"Bet":5048,"mine":5049,"Ajax":5050,"csv":5051,"Dialog":5052,"IFI":5053,"Accessor":5054,"Long":5055,"retrieve":5056,">]).<":5057,"Analyzer":5058,"Definitions":5059,"belongsTo":5060,"Score":5061,"ownerId":5062,"widgets":5063,"formatted":5064,"Encode":5065,"sup":5066,"att":5067,"ĠComposer":5068,"Head":5069,"AI":5070,"Supported":5071,"OKIE":5072,"crypted":5073,"WE":5074,"finder":5075,"Acl":5076,"Dec":5077,"twig":5078,"ART":5079,"ug":5080,"Expected":5081,"findBy":5082,"reverse":5083,"setData":5084,"bt":5085,"ei":5086,"Integration":5087,"getParent":5088,"ĠPhpactor":5089,"Rpc":5090,"ĠgetC":5091,"basename":5092,"Collections":5093,"GROUP":5094,"Ġforeach":5095,"OrFail":5096,"Ġ_(<":5097,"pair":5098,"Env":5099,"lab":5100,"Stan":5101,"VAR":5102,"ross":5103,"wer":5104,"quo":5105,"unds":5106,"FIN":5107,"ired":5108,"footer":5109,"Serializable":5110,"ACTION":5111,"big":5112,"copes":5113,"Specification":5114,"SchemaOrg":5115,"ween":5116,"getContainer":5117,"ĠSession":5118,"Week":5119,"Archive":5120,"Ġoat":5121,"weight":5122,"visit":5123,"light":5124,"Ġthink":5125,"Issue":5126,"utes":5127,"ReflectionClass":5128,"pread":5129,"Character":5130,"mes":5131,"ĠtestSet":5132,"adding":5133,"TableMap":5134,"ĠHas":5135,"mapper":5136,"acl":5137,"ĠPer":5138,"known":5139,"disk":5140,"Handlers":5141,"/<":5142,"Money":5143,"Boolean":5144,"delimiter":5145,"iffer":5146,"AwareTrait":5147,"Arg":5148,"PrimaryKey":5149,"SK":5150,".=<":5151,"UCT":5152,"ADD":5153,"setUp":5154,"urlencode":5155,"TOKEN":5156,"Ġprepare":5157,"Bit":5158,"cli":5159,"ĠResponseInterface":5160,"shouldBeCalled":5161,"MAIL":5162,"console":5163,"WORD":5164,"ĠgetDefault":5165,"enqueue":5166,"addError":5167,"UPDATE":5168,"intval":5169,"GO":5170,"Ġcallable":5171,"binary":5172,"Mob":5173,"ĠProperty":5174,"Ġstrip":5175,"modify":5176,"eventDispatcher":5177,"Attachment":5178,"()){<":5179,"FileInfo":5180,"ASE":5181,"Syn":5182,"LY":5183,"WS":5184,"cessible":5185,"utoload":5186,"setDescription":5187,"Members":5188,"chor":5189,"sync":5190,"ĠSp":5191,"sequence":5192,"ĠFHIR":5193,">(<":5194,"ĠContent":5195,"student":5196,"ARRAY":5197,"unsigned":5198,"errno":5199,"ĠRE":5200,"getLast":5201,"Days":5202,"Ġcollect":5203,"release":5204,"])->":5205,"FILTER":5206,"Ġreadonly":5207,"alt":5208,"Ġ(!($":5209,"ĠPHPExcel":5210,"ĠMage":5211,"Ign":5212,"legram":5213,"PS":5214,"Bound":5215,"Ġde":5216,"Sniff":5217,"Random":5218,"Draft":5219,"--":5220,"keywords":5221,"baseUrl":5222,"ĠBe":5223,"non":5224,"httpClient":5225,"codes":5226,"review":5227,"getUri":5228,"paginate":5229,"reet":5230,"SDK":5231,"CONTENT":5232,"oap":5233,"MAIN":5234,"filepath":5235,"span":5236,"icrosoft":5237,"Sequence":5238,">]][<":5239,"lower":5240,"Segment":5241,"Deleted":5242,"INTEGER":5243,"202":5244,"Browser":5245,"plain":5246,"room":5247,"dap":5248,"FieldName":5249,"Orm":5250,"usage":5251,"ipeline":5252,"Foo":5253,"Download":5254,"week":5255,"den":5256,"avatar":5257,"rier":5258,"asket":5259,"QUO":5260,"allet":5261,"Ġlog":5262,"getPage":5263,"relative":5264,"Ġuser":5265,"ĠInputOption":5266,"vance":5267,"ĠItem":5268,"encoded":5269,"ĠgetData":5270,"FrameworkBundle":5271,"Inline":5272,"COOKIE":5273,"ples":5274,"Listeners":5275,"Ġedit":5276,"ready":5277,"?>":5278,"ForeignKey":5279,"Usage":5280,"Ġinclude":5281,"ASSOC":5282,"alert":5283,"DIT":5284,")[<":5285,"compiler":5286,"da":5287,"checked":5288,"getM":5289,"bility":5290,"Changed":5291,"abric":5292,"requestParam":5293,"urv":5294,"Assertion":5295,"RETUR":5296,"checkMessage":5297,"riend":5298,"onym":5299,"Ġcan":5300,"ally":5301,"Ġ>>":5302,"Encoder":5303,"woole":5304,"LOC":5305,"amel":5306,">)]<":5307,"CONFI":5308,"dst":5309,"Decorator":5310,"Operations":5311,"ng":5312,"ĠOutputInterface":5313,"Cli":5314,"ANCE":5315,"rename":5316,"discount":5317,"loyee":5318,"ĠDS":5319,"moved":5320,"Categories":5321,"getSession":5322,"Ġbasename":5323,")),<":5324,"Pagination":5325,"Sm":5326,"spe":5327,"ĠFactory":5328,"getBase":5329,"DTO":5330,"behavior":5331,"TEN":5332,"bank":5333,"Declaration":5334,"changed":5335,"screen":5336,"OPTIONAL":5337,"qual":5338,"Depth":5339,"allery":5340,"Dig":5341,"19":5342,"PORT":5343,"ture":5344,"userdata":5345,"gl":5346,"()]);<":5347,"->{<":5348,"ContainerBuilder":5349,"Certificate":5350,"Basic":5351,"Cr":5352,"alys":5353,"Detect":5354,"encrypt":5355,"Gran":5356,"Arti":5357,"Previous":5358,"Uid":5359,"ĠServer":5360,"Products":5361,"requestParamHeaders":5362,"come":5363,"percent":5364,"LIN":5365,"Warning":5366,"LAG":5367,"ĠInter":5368,"Ġgettype":5369,"cb":5370,"WI":5371,"Confirm":5372,"bad":5373,"billing":5374,"Machine":5375,"Merchant":5376,"ĠPropel":5377,"expires":5378,"ling":5379,"Matches":5380,"VEL":5381,"queries":5382,"pot":5383,"Languages":5384,"NC":5385,"CCESS":5386,"ĠUpdate":5387,"DataProvider":5388,"anti":5389,"ka":5390,"Skip":5391,"getObject":5392,"Callable":5393,"Calls":5394,"FOR":5395,")),":5396,"Init":5397,"needle":5398,">})<":5399,"ĠRector":5400,"CREATE":5401,">).":5402,"resolved":5403,"high":5404,"addOption":5405,"Conf":5406,"ited":5407,"fee":5408,"WARNING":5409,"ression":5410,"click":5411,"SERVICE":5412,"iven":5413,"decoded":5414,"ĠXML":5415,"Strings":5416,"ObjectSerializer":5417,"OPEN":5418,"Ġnumber":5419,".=":5420,"Oneof":5421,"asc":5422,"vendor":5423,"Bean":5424,"apiClient":5425,"tools":5426,"cles":5427,"ensure":5428,"Thumb":5429,"Progress":5430,"Mvc":5431,"GHT":5432,"Desc":5433,"pm":5434,"zen":5435,"Byte":5436,"abu":5437,"Violation":5438,"atts":5439,"cols":5440,"ui":5441,"sales":5442,"ĠSearch":5443,"ĠConnection":5444,"archive":5445,"ĠTests":5446,"covery":5447,"abilities":5448,"velope":5449,"titude":5450,"ific":5451,"Reason":5452,"letter":5453,"margin":5454,"Observer":5455,"merchant":5456,"ĠENT":5457,"GroupId":5458,"Keyword":5459,"isEmpty":5460,"radi":5461,"PROPER":5462,"ĠOper":5463,"agic":5464,"Sync":5465,"igrate":5466,"Discount":5467,"ĠVersion":5468,"ons":5469,"Templates":5470,"ark":5471,"Criterion":5472,"organization":5473,"ĠModule":5474,"authorization":5475,"FieldType":5476,"Destination":5477,"Ġ(!\\":5478,"JS":5479,"same":5480,"PP":5481,"istance":5482,"prepared":5483,"LEFT":5484,"urvey":5485,"called":5486,"Separator":5487,"EOF":5488,"ĠUnexpectedValueException":5489,"Seconds":5490,"Pair":5491,"sha":5492,"extends":5493,"issue":5494,"ĠDes":5495,"atom":5496,"dm":5497,"icture":5498,"Wire":5499,"Ġ(&$":5500,"Ġv":5501,"Ġconvert":5502,"ATCH":5503,"When":5504,"Elastic":5505,"Curl":5506,"visitor":5507,"Resol":5508,"versable":5509,"Consum":5510,"VALIDATE":5511,"IST":5512,"abricator":5513,"Suffix":5514,"dr":5515,"byte":5516,"variant":5517,"ko":5518,"Flags":5519,"bits":5520,"mob":5521,"Lexer":5522,"Summary":5523,"chool":5524,"tagName":5525,"LATE":5526,"retval":5527,"BER":5528,"rigger":5529,"uff":5530,"sect":5531,"CHAR":5532,"Ġurlencode":5533,"ĠAttribute":5534,"Symbol":5535,"Datas":5536,"Help":5537,"bread":5538,"ĠResult":5539,"Net":5540,"embed":5541,"fallback":5542,"Ġthrow":5543,"OLD":5544,"Ġlang":5545,"Chart":5546,"Ġi":5547,"Push":5548,"PUB":5549,"Pol":5550,"chain":5551,"like":5552,"itialize":5553,"Sy":5554,"POS":5555,"Stop":5556,"Creator":5557,"Partial":5558,"Localization":5559,"ĠCy":5560,"ĠCriteria":5561,"INTER":5562,"alysis":5563,"cover":5564,"ĠArr":5565,"ĠReflectionClass":5566,"share":5567,"Tasks":5568,"Conditions":5569,"olog":5570,"Management":5571,"AMP":5572,"precated":5573,"__(":5574,"fillable":5575,"Opt":5576,"etype":5577,"changes":5578,"uleap":5579,"singleton":5580,"feedback":5581,"ulu":5582,"disabled":5583,"Peer":5584,"Choice":5585,">_":5586,"gre":5587,"ĠHTML":5588,"Stock":5589,"Backup":5590,"Ġenv":5591,"Sdk":5592,"Generic":5593,"filtered":5594,"album":5595,"ĠgetValue":5596,"startTime":5597,"ixel":5598,"altern":5599,"ĠtoArray":5600,"Points":5601,"porter":5602,"Seeder":5603,"rank":5604,"feature":5605,"itude":5606,"ĠSystem":5607,"Ġpack":5608,"CACHE":5609,"([],":5610,"MAP":5611,"workflow":5612,"?><?=":5613,"ĠAsync":5614,"Close":5615,"Orders":5616,"Association":5617,"AV":5618,"Translations":5619,"EOT":5620,"getText":5621,"ĠTag":5622,"pathinfo":5623,"normalized":5624,"zon":5625,"ĠMy":5626,"mi":5627,"Dom":5628,"mmar":5629,"references":5630,"Changes":5631,"ditional":5632,"anc":5633,"pageSize":5634,"basePath":5635,"BY":5636,"Abs":5637,"oliday":5638,"17":5639,"ĠProject":5640,"consumer":5641,"license":5642,"omet":5643,"LEVEL":5644,"ĠCheck":5645,"lookup":5646,">)]":5647,"erInterface":5648,"Magento":5649,"ĠMan":5650,"urls":5651,"Direct":5652,"utf":5653,"udit":5654,"balance":5655,"Tr":5656,"MOD":5657,"Window":5658,"postBody":5659,"COLUM":5660,"smarty":5661,"cookies":5662,"mbed":5663,"catalog":5664,"Ġ[[<":5665,"background":5666,"cluster":5667,"TagName":5668,"OPER":5669,"Standard":5670,"ĠPo":5671,"Percent":5672,"library":5673,"Images":5674,"lyph":5675,"ducer":5676,"Include":5677,"Exist":5678,"money":5679,"jo":5680,"LAB":5681,"Clean":5682,"Hint":5683,"versions":5684,"OBJECT":5685,"tribution":5686,"alize":5687,"setType":5688,"Creation":5689,"estroy":5690,"odo":5691,"LD":5692,"tre":5693,"lat":5694,"responseBody":5695,"Bool":5696,"hecy":5697,"bc":5698,"mpl":5699,"Ġstream":5700,"Named":5701,")]":5702,"ĠFish":5703,"formParam":5704,"Drop":5705,"ĠMockery":5706,"RENT":5707,"Rating":5708,"arebest":5709,"Ġkey":5710,"ĠFisharebest":5711,"USE":5712,"alink":5713,"news":5714,"cut":5715,"Gen":5716,"Presenter":5717,"sent":5718,"essaging":5719,"Soft":5720,"descriptor":5721,"Trigger":5722,"ldap":5723,"EM":5724,"ital":5725,"alth":5726,"fromArray":5727,"Ġ[]<":5728,"org":5729,"ĠCraft":5730,"Lif":5731,"shared":5732,"News":5733,"Runner":5734,"ValidationException":5735,"finish":5736,"Hex":5737,"Recipient":5738,"ĠCategory":5739,"witter":5740,"Ġ],":5741,"hour":5742,"ĠgetAll":5743,"Accessible":5744,"solution":5745,"Shipment":5746,"orted":5747,"aliases":5748,"instances":5749,"stock":5750,"vs":5751,"General":5752,"Mobile":5753,"Old":5754,"ĠPl":5755,"converter":5756,"DescriptorProto":5757,"evalu":5758,"ops":5759,"DELETE":5760,"stra":5761,"Dynamic":5762,"matched":5763,"Ġstore":5764,"Recursive":5765,"logged":5766,"IMAGE":5767,"Clust":5768,"Example":5769,"Scalar":5770,"mform":5771,"Using":5772,"Uploaded":5773,"ĠElement":5774,"aya":5775,"'<":5776,"packet":5777,"?><?=$":5778,"crumbs":5779,"filer":5780,"fected":5781,"wrapper":5782,"};<":5783,"Mailer":5784,"sid":5785,"inline":5786,"addField":5787,"locations":5788,"ĠGraph":5789,"Move":5790,"RIBU":5791,"Cry":5792,"apiKey":5793,"override":5794,"Tri":5795,"ĠActive":5796,"Blocks":5797,"Pk":5798,"Legacy":5799,"Star":5800,"Timezone":5801,"notice":5802,"Ġsearch":5803,"fixture":5804,"Master":5805,"CLO":5806,"oid":5807,"errorMessage":5808,"cron":5809,"flector":5810,"ERY":5811,"Driv":5812,"Ġrequire":5813,"ele":5814,"()),":5815,"ĠGroup":5816,"IDENT":5817,"ube":5818,"ĠFiles":5819,"MLE":5820,"reduce":5821,"missing":5822,"bean":5823,"OLE":5824,"rit":5825,"hasMany":5826,"sections":5827,"coupon":5828,"getToken":5829,"lin":5830,"functions":5831,"Ġfloor":5832,"Benchmarks":5833,"Selection":5834,"ula":5835,"bus":5836,"Remote":5837,"SM":5838,"dimension":5839,"Ġcontinue":5840,"This":5841,"times":5842,"Entries":5843,"tabs":5844,"CSS":5845,"ipu":5846,"wt":5847,"Commerce":5848,"Cost":5849,"ĠDOM":5850,"Geo":5851,"Convert":5852,"Two":5853,"Aliases":5854,"ĠIN":5855,"Weight":5856,"Margin":5857,"acters":5858,"Ġcommon":5859,"Ġsanitize":5860,"protobuf":5861,"Extractor":5862,"RY":5863,"Bootstrap":5864,"sitive":5865,"Editor":5866,"Free":5867,"getContents":5868,"ĠRpc":5869,"ĠBad":5870,"ĠTemplate":5871,"Ui":5872,"ĠBlock":5873,"veal":5874,"getResource":5875,"preadsheet":5876,"saved":5877,"agick":5878,"ĠDiContainer":5879,"Ġwhile":5880,"ĠLogger":5881,"Mongo":5882,"uploaded":5883,"strtoupper":5884,"secure":5885,"groupId":5886,"dater":5887,"ĠCO":5888,">[],<":5889,"PROPERTY":5890,"arator":5891,"dsn":5892,"IM":5893,"NUMBER":5894,"ĠDiContainerBenchmarks":5895,"ĠRel":5896,"Reser":5897,"REST":5898,"UTE":5899,"Revision":5900,"OUTPUT":5901,"ĠStream":5902,"fragment":5903,"ĠOR":5904,"ithub":5905,"classname":5906,"trix":5907,"workspace":5908,"Webhook":5909,"Float":5910,"Esc":5911,"Mes":5912,"hostname":5913,"Office":5914,"nected":5915,"since":5916,"Ġquery":5917,"Ġvar":5918,">)),":5919,"Ġob":5920,"ĠCommerc":5921,"AG":5922,"ipos":5923,">;$":5924,"columnName":5925,"Was":5926,"ian":5927,"cost":5928,"Billing":5929,"Words":5930,"TRUE":5931,"LAY":5932,"ĠPAR":5933,"dd":5934,"persistence":5935,"ARD":5936,"dependency":5937,"cacheKey":5938,"Used":5939,"GuzzleHttp":5940,"logs":5941,"CONFIG":5942,"getStatus":5943,"ToArray":5944,"Ġrand":5945,"Labs":5946,"etools":5947,"mul":5948,"Ticket":5949,"cludes":5950,"seed":5951,"dataset":5952,"Ten":5953,"Ġstart":5954,"ird":5955,"ĠCommercetools":5956,"ĠWork":5957,"Locations":5958,"tives":5959,"ĠSerializ":5960,"SUCCESS":5961,"ĠColumn":5962,"mobile":5963,"ĠGra":5964,"STOM":5965,"cn":5966,"Registration":5967,"sleep":5968,"ĠKwf":5969,"bootstrap":5970,"getBy":5971,"ĠProcess":5972,">.($":5973,"headerParams":5974,"ĠAction":5975,"Cs":5976,"apaya":5977,"numberOf":5978,"([]);<":5979,"que":5980,"preview":5981,"precision":5982,">})->":5983,"FLAG":5984,"Ġname":5985,"letion":5986,"oauth":5987,"Flu":5988,"Ġunserialize":5989,"Ġord":5990,"getColumn":5991,"failed":5992,"watch":5993,"pokemon":5994,"Numeric":5995,"replacement":5996,"Commit":5997,"framework":5998,"fq":5999,"Algorithm":6000,"visible":6001,"panel":6002,"segments":6003,"destroy":6004,"ptr":6005,"ector":6006,"ticipant":6007,"git":6008,"cancel":6009,"Ġmap":6010,"QUERY":6011,"Calculation":6012,"see":6013,"RANSFER":6014,"reak":6015,"ĠSulu":6016,"ContextInterface":6017,"Chunk":6018,"comparison":6019,"SPE":6020,"addr":6021,"ĠAND":6022,"Ġmin":6023,"Ġdata":6024,"Ġhttp":6025,"Ġreal":6026,"ĠAccess":6027,"getView":6028,"angle":6029,"appro":6030,"CHAN":6031,"ĠAsset":6032,"Sample":6033,"ableInterface":6034,"ĠDocument":6035,"toBe":6036,"EXTEN":6037,"Pal":6038,"Quo":6039,"Factor":6040,"EMP":6041,"ATTRIBU":6042,"ĠUtil":6043,"tl":6044,"RequestException":6045,"IDs":6046,"ICE":6047,"PhpParser":6048,"ĠRo":6049,"getElements":6050,"Serialization":6051,"Note":6052,"CATEG":6053,"Hidden":6054,"reveal":6055,"relations":6056,"undo":6057,"aystack":6058,"house":6059,"asser":6060,"Nested":6061,"voc":6062,"Ġerror":6063,"ĠGenerator":6064,"ĠPayment":6065,"statements":6066,"Ġ-=":6067,"resourceOwnerId":6068,"slot":6069,"DisplayName":6070,">));":6071,"ĠTask":6072,"icing":6073,"timer":6074,"ocial":6075,"*$":6076,"Ġabs":6077,"Tracking":6078,"wire":6079,"Dependencies":6080,"popu":6081,"pluck":6082,"modelClass":6083,"Branch":6084,"getVersion":6085,"HOST":6086,"Priv":6087,"Chars":6088,"getContext":6089,"subscribe":6090,"controllers":6091,"abort":6092,"UNI":6093,"Dto":6094,"ALLOW":6095,"Cluster":6096,"Decode":6097,"Nil":6098,"Configur":6099,"sRequest":6100,"getDatabase":6101,"ĠCON":6102,"lis":6103,"tear":6104,"pur":6105,"VIE":6106,"ometry":6107,"Ġadmin":6108,"Ġjoin":6109,"Workspace":6110,"ĠPlugin":6111,"It":6112,"Ġinput":6113,"?$":6114,"ale":6115,"registered":6116,"pace":6117,"remain":6118,"sku":6119,"IFY":6120,"choice":6121,"Analytics":6122,"Exchange":6123,"JW":6124,"ToString":6125,"Frontend":6126,"press":6127,"COMMENT":6128,"partment":6129,"CAP":6130,"FieldDescriptorProto":6131,"audio":6132,"Holder":6133,"tearDown":6134,"Rector":6135,"ĠContao":6136,"aring":6137,">][":6138,"ĠRole":6139,"AX":6140,"tism":6141,"ĠPhalcon":6142,"na":6143,"asure":6144,"Review":6145,"kl":6146,"ĠUtils":6147,"Notifications":6148,"med":6149,"rot":6150,"yper":6151,"setResponse":6152,"Hours":6153,"ĠCWM":6154,">.$_":6155,"ĠgetDescription":6156,"Age":6157,"MLElement":6158,"ransi":6159,"Dispatch":6160,"acity":6161,"ormal":6162,"supports":6163,"div":6164,"hoto":6165,"TEMP":6166,"tition":6167,"Consumer":6168,"Packet":6169,"transfer":6170,"shortcode":6171,"AF":6172,"ban":6173,"aving":6174,"Self":6175,"authorize":6176,"Loaded":6177,"tasks":6178,"MEDI":6179,"credit":6180,"ris":6181,"markup":6182,"Ġgetenv":6183,"LUGIN":6184,"Between":6185,"Hydrator":6186,"Ġpre":6187,"iteral":6188,"Ġhash":6189,"Ġqtism":6190,"tell":6191,"ves":6192,"COLUMN":6193,"enario":6194,"under":6195,"getTitle":6196,"ĠRule":6197,"CN":6198,"Monitor":6199,"Refresh":6200,"ĠMail":6201,"ailability":6202,"haystack":6203,"GraphQL":6204,"Second":6205,"manage":6206,"equals":6207,"Queries":6208,"Print":6209,"resourceOwnerAccount":6210,"14":6211,"strategy":6212,"ĠNet":6213,"Sup":6214,"Selected":6215,"timestamps":6216,"Sender":6217,"salt":6218,"NameTemplate":6219,"PED":6220,"ĠThrow":6221,"Std":6222,"Ġinsert":6223,"submission":6224,"Iter":6225,"Ġrealpath":6226,"ĠDelete":6227,"Compute":6228,"phrase":6229,"Car":6230,"latable":6231,"trade":6232,"assertContains":6233,"QUAL":6234,"Ġ=&":6235,"ĠGPB":6236,"){":6237,"mailer":6238,"candidate":6239,"ĠExpression":6240,"Messaging":6241,"presentation":6242,"Timer":6243,"()];<":6244,"serviceName":6245,"Ġall":6246,"setDefault":6247,"ivot":6248,"operations":6249,"ump":6250,"WithHttp":6251,"expectExceptionMessage":6252,"ĠTuleap":6253,"campaign":6254,"fire":6255,"MD":6256,"website":6257,"ĠPar":6258,"Super":6259,"delay":6260,"Relative":6261,"border":6262,"ĠBack":6263,"Unset":6264,"requested":6265,"Mut":6266,"LENG":6267,"Bank":6268,"eventName":6269,"Io":6270,"rating":6271,"tests":6272,"stm":6273,"ĠDEFAULT":6274,"Span":6275,"each":6276,"constant":6277,"Packages":6278,"delta":6279,"ĠSTATUS":6280,"Offer":6281,"assertNotNull":6282,"Embed":6283,"ĠRedirect":6284,"LENGTH":6285,"VO":6286,"Ġdisplay":6287,"Assignment":6288,"PROD":6289,"Img":6290,"Messenger":6291,"InputOption":6292,"tine":6293,"QUOTES":6294,"uch":6295,"Implement":6296,"Merge":6297,"them":6298,"UNK":6299,"Sale":6300,"Reply":6301,"ĠSu":6302,"Additional":6303,"Aggregation":6304,"Restri":6305,"PerPage":6306,"cipher":6307,"createQueryBuilder":6308,"Verify":6309,"activate":6310,"exchange":6311,"assertString":6312,"crop":6313,"ĠDomain":6314,"Views":6315,"Visible":6316,"ĠAS":6317,"Ġfor":6318,"ITEM":6319,"extend":6320,"reser":6321,"tical":6322,"emundo":6323,"syn":6324,"ROW":6325,"bg":6326,"Placeholder":6327,"ĠValue":6328,"TIMEOUT":6329,"Ġmethod":6330,"ĠMem":6331,"Based":6332,"ĠJMS":6333,"rough":6334,"ba":6335,"EqualTo":6336,"ĠTime":6337,"packages":6338,"Ġwppa":6339,"getArgument":6340,"Any":6341,"ĠReference":6342,"coin":6343,"alker":6344,"multiple":6345,"Ġvalid":6346,"FE":6347,"nested":6348,"Less":6349,"UTF":6350,"IFIER":6351,"EXTENSION":6352,"iry":6353,"sx":6354,"colors":6355,"lp":6356,"tabl":6357,"Ġrules":6358,"oud":6359,"peri":6360,"sity":6361,"matcher":6362,"MetaData":6363,"acc":6364,"ierarch":6365,"MElement":6366,"LIMIT":6367,"Ġltrim":6368,"ĠPHPStan":6369,"TRA":6370,"ggestion":6371,"Vari":6372,"choices":6373,"BIN":6374,"ipt":6375,"Coupon":6376,"setId":6377,"Panel":6378,"RESOURCE":6379,"creator":6380,"ĠLanguage":6381,"ctype":6382,"leftJoin":6383,"Union":6384,"Wor":6385,"DEX":6386,"ouch":6387,"CUSTOM":6388,"nodeName":6389,"ĠThrowable":6390,"Ġinitialize":6391,"OriginalConstructor":6392,"ĠIterator":6393,"cepted":6394,"flip":6395,"ks":6396,"scripts":6397,"Ldap":6398,"Blog":6399,"crawler":6400,"dict":6401,"entifiers":6402,"ANT":6403,"matrix":6404,"Ġfn":6405,"Rad":6406,"ĠAuthentic":6407,"plural":6408,"manifest":6409,"ATTR":6410,"Credit":6411,"Absolute":6412,"Versions":6413,"ĠState":6414,"OwnerId":6415,"createdAt":6416,"bindParam":6417,"ĠBit":6418,"extended":6419,"mas":6420,"Safe":6421,"FAI":6422,"Cast":6423,"Gre":6424,"lar":6425,"lif":6426,"locate":6427,"Home":6428,"Ġsupport":6429,"getPost":6430,"Paginator":6431,"getForm":6432,"addElement":6433,"ĠSTR":6434,"Tracker":6435,"'>":6436,"getCache":6437,"follow":6438,"JsonApi":6439,"UserInterface":6440,"association":6441,"aData":6442,"wc":6443,"ĠsetId":6444,"startDate":6445,"dicate":6446,"ksort":6447,"getIn":6448,"configure":6449,"Qualified":6450,"that":6451,"ĠPARAM":6452,"Varint":6453,"ĠMulti":6454,"cussion":6455,"Alert":6456,"pub":6457,"cies":6458,"ORI":6459,"KET":6460,"DOMAIN":6461,"Domains":6462,"WithHttpInfo":6463,"Accept":6464,"Coverage":6465,"Metrics":6466,"disableOriginalConstructor":6467,"ĠMap":6468,"osite":6469,"DIS":6470,"FC":6471,"CONNE":6472,"equalTo":6473,"EQUAL":6474,"SIG":6475,"entical":6476,"Behat":6477,"charge":6478,"eq":6479,"ution":6480,"nodeValue":6481,"rpos":6482,"Preview":6483,"Jav":6484,"family":6485,"SHI":6486,"pending":6487,"Cursor":6488,"ĠCommon":6489,"ONG":6490,"Processing":6491,"padding":6492,"ĠSORT":6493,"oriz":6494,"refund":6495,"ĠLogicException":6496,"CATED":6497,"deployment":6498,"associ":6499,"Real":6500,"Override":6501,"pokemonMeta":6502,"Promotion":6503,"dbh":6504,"bra":6505,"AsString":6506,"OrderBy":6507,"odle":6508,"Refund":6509,"pal":6510,"Complete":6511,"ev":6512,"ced":6513,"PASS":6514,"Align":6515,"attempt":6516,"ĠFilesystem":6517,"rati":6518,"processed":6519,"Parsed":6520,"permalink":6521,"expiration":6522,"allen":6523,">];?><?":6524,"Logged":6525,"soap":6526,"itrix":6527,"Yaml":6528,"Release":6529,"Skill":6530,"ĠConsole":6531,"FAILED":6532,"sec":6533,"Bra":6534,"SITE":6535,"nextPageToken":6536,"++)<":6537,"ĠCur":6538,"ĠHelper":6539,"ceil":6540,"slash":6541,"Urls":6542,"ESCA":6543,"ApiException":6544,"BS":6545,"Transition":6546,"ens":6547,"wiki":6548,"sale":6549,"ifiers":6550,"Cancel":6551,"lists":6552,"scan":6553,"logo":6554,"intersect":6555,"Navigation":6556,"social":6557,"FromArray":6558,"ĠFunction":6559,"Fill":6560,"orary":6561,"sess":6562,"Appro":6563,"VIEW":6564,"Inject":6565,"CONF":6566,"Center":6567,"ĠHTTP":6568,"Translate":6569,"mpt":6570,"Ġfactory":6571,"irth":6572,"shouldHave":6573,"nam":6574,"Illuminate":6575,"ĠSE":6576,"IDENTIFIER":6577,"MON":6578,"><?=$":6579,"iral":6580,"High":6581,"FS":6582,"emit":6583,"Executor":6584,"iso":6585,"Styles":6586,"RESS":6587,"clause":6588,"ĠAmp":6589,"Ġuniqid":6590,"unshift":6591,"ĠPATH":6592,"dee":6593,"validationRules":6594,"agraph":6595,"Logs":6596,"NER":6597,"Coordinate":6598,"salm":6599,"sidebar":6600,"dependencies":6601,"DED":6602,"Dashboard":6603,"mix":6604,"pose":6605,"factor":6606,"uman":6607,"detect":6608,"WITH":6609,"Ġboot":6610,"decor":6611,"ĠgetResource":6612,"@$":6613,"may":6614,"ĠOAuth":6615,"Published":6616,"Initializ":6617,"contract":6618,"swagger":6619,"captcha":6620,"pi":6621,"ActiveRecord":6622,"oday":6623,"Ġ@$":6624,"Units":6625,"Disabled":6626,"aper":6627,"fh":6628,"ascript":6629,"fake":6630,"Ast":6631,"amples":6632,"Abstra":6633,"Orch":6634,"align":6635,"ĠgetLast":6636,"CATEGORY":6637,">#[\\":6638,"gets":6639,"groupBy":6640,"Tester":6641,"OPT":6642,"white":6643,"ider":6644,"Constru":6645,"ĠEloquent":6646,"handlers":6647,"glob":6648,"added":6649,"dataProvider":6650,"absolute":6651,"ĠMethod":6652,"Pur":6653,"autoload":6654,"ĠPermission":6655,"getOptions":6656,"ĠMet":6657,"shell":6658,"pie":6659,"getList":6660,"ros":6661,"ĠSl":6662,"FormBuilderInterface":6663,"Threshold":6664,"FALSE":6665,"ĠNemundo":6666,")];<":6667,"getItem":6668,"eo":6669,"WillChange":6670,"EMAIL":6671,"hide":6672,"IDE":6673,"EntityType":6674,"ReturnTypeWillChange":6675,"inputs":6676,"ATTRIBUTE":6677,"gr":6678,"correct":6679,"ByTagName":6680,"INPUT":6681,"jor":6682,"vation":6683,"ydrate":6684,"Patch":6685,"Printer":6686,"Ġsupports":6687,"Ok":6688,"Sen":6689,"parents":6690,"guard":6691,"ĠSpiral":6692,"ErrorException":6693,"irt":6694,"partial":6695,"errorCode":6696,"getLine":6697,"pas":6698,"Tokenizer":6699,"definitions":6700,"RETURNT":6701,"exceptions":6702,"BACK":6703,"affected":6704,"CompilerPass":6705,"RESP":6706,"BI":6707,"tip":6708,"RETURNTRANSFER":6709,"BLOCK":6710,"ĠPers":6711,"ĠUuid":6712,"entif":6713,"setError":6714,"(_":6715,"ĠFor":6716,"Encryption":6717,"ots":6718,"ga":6719,"ClassMetadata":6720,"Instances":6721,"roker":6722,"lashes":6723,"hint":6724,"annotations":6725,"endif":6726,"POINT":6727,"pod":6728,"Soap":6729,"Cy":6730,"frastructure":6731,"une":6732,"ĠNette":6733,"getNode":6734,"Rank":6735,"shipment":6736,"ĠJsonResponse":6737,"Dumper":6738,"sa":6739,"ownerAccount":6740,"compute":6741,"thisfile":6742,"PHPFHIR":6743,"CLOSE":6744,"compet":6745,"Ġendforeach":6746,"subscriber":6747,"Pipe":6748,"ITI":6749,"combine":6750,"exact":6751,"PRINT":6752,"addon":6753,"NOWN":6754,"dash":6755,"tack":6756,"flatten":6757,"START":6758,"Ġ))":6759,"getActive":6760,"Defined":6761,"ĠDefault":6762,"Ġnormalize":6763,"hooks":6764,"Added":6765,"Drupal":6766,"gt":6767,"hours":6768,"getModule":6769,"Break":6770,"Clear":6771,"Functional":6772,"TL":6773,"verity":6774,"ĠERROR":6775,"namespaces":6776,"pointer":6777,"decimal":6778,"ĠPhabricator":6779,"Ġ]);<":6780,"Click":6781,"Guard":6782,"):<":6783,"Modifier":6784,"aries":6785,"ĠChar":6786,"backtrace":6787,"bindings":6788,"ĠJob":6789,"usted":6790,"async":6791,"PRECATED":6792,"SO":6793,"verted":6794,"MimeType":6795,"Payments":6796,"ĠFIELD":6797,"getTimestamp":6798,"GEX":6799,"cycle":6800,"Ġspec":6801,"cloud":6802,"LF":6803,"vals":6804,"ĠPack":6805,"Abstraction":6806,"cert":6807,"valueTo":6808,"esize":6809,"returns":6810,"Ġextract":6811,"pin":6812,"udience":6813,"mtime":6814,"ĠVis":6815,"entityType":6816,"booking":6817,"terminal":6818,"assess":6819,"FOUND":6820,"retry":6821,"trees":6822,"olicies":6823,"ĠLink":6824,"swers":6825,"neg":6826,"Ġbefore":6827,"Balance":6828,"Family":6829,"ĠNotFound":6830,"promise":6831,"LINK":6832,"ĠAPI":6833,"Telegram":6834,")($":6835,"Requ":6836,"never":6837,"PLUGIN":6838,"seq":6839,"quiz":6840,"IfExists":6841,"ĠjsonSerialize":6842,"fromString":6843,"Generate":6844,"ocker":6845,">*<":6846,"NEW":6847,"ĠStatus":6848,"Easy":6849,"Thread":6850,"Returns":6851,"Projects":6852,">]){<":6853,"lexer":6854,"ĠParameter":6855,"Conversation":6856,"proph":6857,"itation":6858,"truct":6859,"Live":6860,"ĠPath":6861,"resize":6862,"setTitle":6863,"keep":6864,"authentication":6865,"ratio":6866,"See":6867,"servers":6868,"UPLOAD":6869,"ColumnName":6870,"notNull":6871,"ĠConfiguration":6872,"ĠMedia":6873,"findOrFail":6874,"Disk":6875,"ITION":6876,"rgb":6877,"Activ":6878,"FIELDS":6879,"capability":6880,"getManager":6881,"walk":6882,"ĠEmail":6883,"Snapshot":6884,"await":6885,"EventListener":6886,"AdsApi":6887,"getOrder":6888,"Enable":6889,"Phrase":6890,"Visibility":6891,"published":6892,"Photo":6893,"runtime":6894,"Tmp":6895,"fieldType":6896,"SubscriberInterface":6897,"getElementsByTagName":6898,"ymbols":6899,"ĠBuilder":6900,"ĠXml":6901,"Modify":6902,"readable":6903,"incre":6904,"States":6905,"Ġexternal":6906,"LEMENT":6907,"mn":6908,"buttons":6909,"coming":6910,"ĠIs":6911,"allenge":6912,"liter":6913,"Suite":6914,"constraints":6915,"mimeType":6916,"Ġid":6917,"SPECI":6918,"Existing":6919,"XMLElement":6920,"csrf":6921,"ĠPsalm":6922,"DEPRECATED":6923,"xs":6924,"Native":6925,"bose":6926,"Literal":6927,"findOneBy":6928,"Ġ([]":6929,"WHI":6930,"endTime":6931,"MethodCallException":6932,"INDEX":6933,"Analysis":6934,"Contain":6935,"initialized":6936,"adds":6937,"Impl":6938,"marker":6939,"themes":6940,"parentNode":6941,"sf":6942,"PEND":6943,"Answer":6944,"FORE":6945,"moodle":6946,"CP":6947,"unce":6948,"Ġcompile":6949,"UNKNOWN":6950,"tinu":6951,"ModelName":6952,"etter":6953,"Series":6954,"transformer":6955,"buy":6956,"Ġcore":6957,"UploadedFile":6958,"atio":6959,"EventManager":6960,"states":6961,">].$":6962,"icator":6963,"endDate":6964,"Ġreplace":6965,"EMPTY":6966,"getFull":6967,"TERN":6968,"onical":6969,"ildcard":6970,"Orchest":6971,"vanced":6972,"Calculator":6973,"sth":6974,"ĠSpl":6975,"viewer":6976,"ipay":6977,"Room":6978,"ato":6979,"trunc":6980,"ACCESS":6981,"ĠNumber":6982,"Bread":6983,"parentId":6984,"Ġdestroy":6985,"caption":6986,"Market":6987,"OPERATOR":6988,"ClientInterface":6989,"indexes":6990,"PL":6991,"front":6992,"tc":6993,"productId":6994,"ĠSon":6995,"ĠPhpSpec":6996,"Qti":6997,"pick":6998,"istr":6999,"MODULE":7000,"lots":7001,"NumberOf":7002,"ĠDevice":7003,"UserAgent":7004,"Secure":7005,"ffect":7006,"Ġsf":7007,"rollback":7008,"done":7009,"RESULT":7010,"DAY":7011,"ĠGoogleCloud":7012,"describe":7013,"Encrypt":7014,"authorized":7015,"ĠComponent":7016,"ĠME":7017,"pingList":7018,"tf":7019,"22":7020,"ĠIndex":7021,"svg":7022,"commerce":7023,"INC":7024,"--;<":7025,"..":7026,"htmlspecialchars":7027,"Ġsql":7028,"kit":7029,"Cod":7030,"jobs":7031,"ĠORM":7032,"findAll":7033,"===":7034,"ĠServiceProvider":7035,"getIs":7036,"Stage":7037,"getSource":7038,"ado":7039,"Concrete":7040,"ĠStorage":7041,"uture":7042,"attributeMap":7043,"sample":7044,"formats":7045,"singular":7046,"DD":7047,"Sa":7048,"fc":7049,"Ei":7050,"listeners":7051,"AbstractionLayer":7052,"ather":7053,"certificate":7054,">]],":7055,"mappings":7056,"Fragment":7057,"dates":7058,"itespace":7059,"cwd":7060,"DataAbstractionLayer":7061,"currentPage":7062,"reporting":7063,"ĠTer":7064,"dc":7065,"Scheme":7066,"Responses":7067,"union":7068,"Concer":7069,"imcore":7070,"ĠPag":7071,"PRODUCT":7072,"Ġnext":7073,"Direction":7074,"Ġthe":7075,"ĠArrayHelper":7076,"Unknown":7077,"Bin":7078,"City":7079,"requestParameters":7080,"dirs":7081,"justment":7082,"RESPON":7083,"Volume":7084,"ĠThe":7085,"Now":7086,"Successful":7087,"Ratio":7088,"esh":7089,"ĠNull":7090,"?><?<":7091,"TS":7092,"Ġsession":7093,"ina":7094,"getApi":7095,"CHECK":7096,"esk":7097,"DataObject":7098,"sxe":7099,"ĠWe":7100,"License":7101,"vote":7102,"getIdentifier":7103,"Buy":7104,"ServiceManager":7105,"rpc":7106,"MY":7107,"attachments":7108,"ticker":7109,"Constructed":7110,"ĠApiException":7111,"listing":7112,"implements":7113,"userInfo":7114,"Ġ][<":7115,">$_[<":7116,"Other":7117,"tel":7118,"displayName":7119,"ctrum":7120,"rome":7121,"ĠGenerated":7122,"VERIFY":7123,"ĠgetRequest":7124,"moduleName":7125,"Installer":7126,"Wiki":7127,"[]=":7128,"erge":7129,"esis":7130,"ĠMicrosoft":7131,"nr":7132,"Attemp":7133,"ARCH":7134,"Dictionary":7135,"double":7136,"siz":7137,"ĠSm":7138,"rawurlencode":7139,"Ġmatch":7140,"getHost":7141,"ico":7142,"ACTIVE":7143,"Retrie":7144,"EAM":7145,"Fee":7146,"Charset":7147,"organ":7148,"encoder":7149,"aterial":7150,"units":7151,"Spectrum":7152,"Lower":7153,"agram":7154,"brand":7155,"ĠTransaction":7156,"Ġshould":7157,"formParamValue":7158,"sorted":7159,"evaluate":7160,"getAttributes":7161,"Retry":7162,"aterThan":7163,"attri":7164,"currentUser":7165,"Countable":7166,"gallery":7167,"Thumbnail":7168,"prophesize":7169,"contain":7170,"ESCAPED":7171,"forms":7172,"cketmine":7173,"Campaign":7174,"locator":7175,"Border":7176,"take":7177,"Ġ][":7178,"behaviors":7179,"unknown":7180,"getArray":7181,"Systems":7182,"nick":7183,"ransient":7184,"Hub":7185,"notes":7186,"Extended":7187,"Mappings":7188,"ane":7189,"MAR":7190,">)[<":7191,"increment":7192,"ĠEnum":7193,"Rew":7194,"Course":7195,"super":7196,"Expired":7197,"Deploy":7198,"ĠCyber":7199,"Addresses":7200,"PaymentMethod":7201,"ness":7202,"invalidProperties":7203,"TEST":7204,"PRET":7205,"Comb":7206,"ĠArgument":7207,"installed":7208,"nodeType":7209,"Feedback":7210,"mplify":7211,"Special":7212,"Requirements":7213,"bidden":7214,"latest":7215,"Organ":7216,"Ġ^":7217,"QUE":7218,"ĠPu":7219,"VERBO":7220,"odium":7221,"ĠClar":7222,"selection":7223,"checkbox":7224,"latitude":7225,"Conversion":7226,"ORK":7227,"ios":7228,"minutes":7229,"Evalu":7230,"zed":7231,"ĠST":7232,"registration":7233,"Verification":7234,"Shell":7235,"localiz":7236,"Ġclean":7237,"ENCE":7238,"ores":7239,"ASH":7240,"References":7241,"Listing":7242,"Inventory":7243,"eZ":7244,"Sets":7245,"Make":7246,"ĠCyberSpectrum":7247,"example":7248,"ĠisValid":7249,"Ġmt":7250,"getD":7251,"RESPONSE":7252,"RIGHT":7253,"paginator":7254,"White":7255,"Ġpocketmine":7256,"irtual":7257,"Edi":7258,"ENV":7259,"That":7260,"Decimal":7261,"mf":7262,"Infrastructure":7263,"ierarchy":7264,"Watch":7265,"NODE":7266,"yg":7267,"Ġdefault":7268,"rowCount":7269,"EAR":7270,"seo":7271,"Si":7272,"stage":7273,"EntityManager":7274,"named":7275,"slashes":7276,"MBOL":7277,"<$":7278,"PUBLIC":7279,"ErrorMessage":7280,"curring":7281,"mented":7282,"Sor":7283,"isNew":7284,"declaration":7285,"Footer":7286,"Sniffer":7287,"Deployment":7288,"GR":7289,"chemas":7290,"Escape":7291,"WHITE":7292,"Ġ$__":7293,"ĠEasy":7294,"JWT":7295,"TAR":7296,"getDefinition":7297,"AdManager":7298,"PhpDoc":7299,">.(":7300,"getParameters":7301,"Detector":7302,"getTemplate":7303,"GeneratorInterface":7304,"blem":7305,">,[<":7306,"series":7307,"istrator":7308,"getLocale":7309,"maybe":7310,"unch":7311,"MShop":7312,"thing":7313,"Markup":7314,"Sid":7315,"writable":7316,"ipulator":7317,"getImage":7318,"drupal":7319,"ĠgetContent":7320,"AMETER":7321,"ritory":7322,"Prepar":7323,"CreatedAt":7324,"Side":7325,"PRETTY":7326,">]]))":7327,"criterion":7328,"Ġ?\\":7329,"dian":7330,"draft":7331,"DEFIN":7332,"connector":7333,"Testing":7334,"BC":7335,"cate":7336,"ĠgetStatus":7337,"INST":7338,"responses":7339,"projects":7340,"onymous":7341,"gid":7342,"have":7343,"Ġclose":7344,">=>[<":7345,"duction":7346,"wn":7347,"ServiceInterface":7348,"ĠTo":7349,"Webtrees":7350,"stit":7351,"authenticate":7352,"IMP":7353,"ae":7354,"ĠgetP":7355,"stored":7356,"Health":7357,"alternate":7358,"orderId":7359,"pp":7360,"sessionId":7361,"ester":7362,"ffic":7363,"given":7364,"ifex":7365,"urnal":7366,"Documentor":7367,"discussion":7368,"iling":7369,"Factories":7370,"FromString":7371,"Times":7372,"gran":7373,"Student":7374,"ĠUri":7375,"icle":7376,"SalesChannel":7377,"EntityInterface":7378,"LABEL":7379,"PAD":7380,"Err":7381,"setOption":7382,"transition":7383,"requency":7384,"precation":7385,"Updater":7386,"ĠtestCreate":7387,"ĠDO":7388,"tracking":7389,"UNESCAPED":7390,"Stamp":7391,"tifier":7392,"olr":7393,"Credential":7394,"fk":7395,"FAIL":7396,"seller":7397,"Notify":7398,"det":7399,"mazon":7400,"ĠAssert":7401,"ah":7402,"getTarget":7403,"community":7404,"bling":7405,"Indexes":7406,"TEMPLATE":7407,"LogLevel":7408,"providers":7409,"Binding":7410,"volume":7411,"Does":7412,"many":7413,"ingle":7414,"XPath":7415,"CRY":7416,"Transifex":7417,"duplicate":7418,"Iam":7419,">)]);<":7420,"currence":7421,"Claim":7422,"PublicKey":7423,"PAYMENT":7424,"Screen":7425,"anchor":7426,"program":7427,"PhpTransifex":7428,"RULE":7429,"DataSource":7430,"vas":7431,"tz":7432,"LET":7433,"prototype":7434,"ĠFILE":7435,"ĠgetIs":7436,"dataType":7437,"FieldValue":7438,"remaining":7439,"AUT":7440,"Vat":7441,"arm":7442,"nos":7443,"CTED":7444,"qs":7445,"jav":7446,"ral":7447,"fit":7448,"ĠgetParent":7449,"utdown":7450,"Portal":7451,"MULT":7452,"ĠSite":7453,"vite":7454,"execution":7455,"SUP":7456,"vl":7457,"Ez":7458,"olt":7459,"valueToName":7460,"FIED":7461,"Directive":7462,"Lists":7463,"ĠgetUrl":7464,"requests":7465,"EXCE":7466,"ĠtearDown":7467,"Utilities":7468,"256":7469,"ĠGPBUtil":7470,"cos":7471,"shall":7472,"FailedException":7473,"Preference":7474,"ENTITY":7475,"Ġ()<":7476,"adow":7477,"urant":7478,"hi":7479,"MSG":7480,"creation":7481,"vocation":7482,"two":7483,"Intent":7484,"newInstance":7485,"beConstructed":7486,"visibility":7487,"black":7488,"ĠQueue":7489,"isation":7490,"OrderItem":7491,"ggle":7492,"resta":7493,"Ġsu":7494,"getFirst":7495,"updates":7496,"skill":7497,"tential":7498,"encrypted":7499,"analyzer":7500,"lead":7501,"acti":7502,"validated":7503,"ĠMenu":7504,"interfaces":7505,"edBy":7506,"Orchestra":7507,"Spreadsheet":7508,"mid":7509,"OFF":7510,"Exit":7511,"ZIP":7512,"addArgument":7513,"REGEX":7514,"generic":7515,"getCollection":7516,"fname":7517,"Ġceil":7518,"center":7519,"ĠRes":7520,"gar":7521,"TypeException":7522,"JsonResponse":7523,"ĠDoc":7524,"sut":7525,"Edge":7526,"deprecated":7527,"legate":7528,"Vendor":7529,"Clients":7530,"ĠgetM":7531,"Ax":7532,"Cron":7533,"ErrorCode":7534,"projectId":7535,"Features":7536,"ĠGeneral":7537,"basic":7538,"orizon":7539,"lazy":7540,"formvars":7541,"longitude":7542,"ĠRouter":7543,"locked":7544,"ĠGraphQL":7545,"constructor":7546,"signal":7547,"Pie":7548,"ĠCI":7549,"Publisher":7550,"ĠphpDocumentor":7551,"configs":7552,"ĠsetType":7553,"clientId":7554,"ufact":7555,"ĠArrayAccess":7556,"ĠPRO":7557,"Registered":7558,"requestStack":7559,"queryString":7560,"Ġstrrpos":7561,"La":7562,"ĠKey":7563,"ĠAddress":7564,"cv":7565,"Sources":7566,"InputArgument":7567,"decrypt":7568,"DOC":7569,"aming":7570,"getDescription":7571,"Numbers":7572,"Slot":7573,"getDb":7574,"present":7575,"Charge":7576,"ĠRest":7577,"ContainsString":7578,"vari":7579,"SCRIPTION":7580,"SR":7581,"riendly":7582,"]]":7583,"Cached":7584,"agon":7585,"Crud":7586,"rite":7587,"sizes":7588,"writeAttribute":7589,"Ġk":7590,"Ġcopy":7591,"ĠPREG":7592,"sources":7593,"Notes":7594,"herit":7595,"Accounts":7596,"39":7597,"ĠCustomer":7598,"getNamespace":7599,"destruct":7600,"aba":7601,"microtime":7602,"forward":7603,"Ġpathinfo":7604,"LOCATION":7605,"ares":7606,"zero":7607,"peer":7608,"aching":7609,"pager":7610,"mapped":7611,"PHPExcel":7612,"Ġroute":7613,"Ġiterable":7614,"getAccessToken":7615,"PLA":7616,"getT":7617,"ĠgetF":7618,"DateTimeImmutable":7619,"PARENT":7620,"fileInfo":7621,"languageCode":7622,"blo":7623,"tempBody":7624,"Nullable":7625,"nom":7626,"running":7627,"assignment":7628,"tence":7629,"nee":7630,"navigation":7631,"tle":7632,"tributor":7633,"ined":7634,"Ġselect":7635,"DateTimeInterface":7636,"ResolverInterface":7637,"ĠSettings":7638,"Ġtransform":7639,"ArrayHelper":7640,"Ġ())":7641,"ĠMark":7642,"CsFixer":7643,"addslashes":7644,"VCloud":7645,">)];<":7646,"Src":7647,"Lar":7648,"ĠFixtureC":7649,"Mage":7650,"ĠOp":7651,"ĠoffsetSet":7652,")))<":7653,"trict":7654,"ĠSonata":7655,"without":7656,"Ġfin":7657,"Indent":7658,"Trash":7659,"Bulk":7660,">)?><?":7661,";}<":7662,"Statements":7663,"modelName":7664,"tyle":7665,"Captcha":7666,"Lab":7667,"icode":7668,"Ġauth":7669,"Crypto":7670,"Ca":7671,"employee":7672,"ople":7673,"agle":7674,"ĠSign":7675,"AdminBundle":7676,"except":7677,"Ġhtmlentities":7678,"Quick":7679,"Wallet":7680,"YLE":7681,"Ġsizeof":7682,"getServer":7683,"whereIn":7684,"ĠEmp":7685,"ROUTE":7686,"ĠValidation":7687,"rames":7688,"alter":7689,"getSize":7690,"snapshot":7691,"rewrite":7692,"getProperties":7693,"REA":7694,"Design":7695,"FileSystem":7696,"operand":7697,"Life":7698,"Posts":7699,"bill":7700,"exist":7701,"suer":7702,"Geometry":7703,"ĠRelation":7704,"ĠgetMessage":7705,"ji":7706,"WORK":7707,"prepend":7708,"rev":7709,"mand":7710,"oline":7711,"Red":7712,"Seed":7713,"tisan":7714,"SYMBOL":7715,"minor":7716,"Reports":7717,"ĠPO":7718,"NCY":7719,"courseid":7720,"ĠOperation":7721,"siteId":7722,"survey":7723,"Keywords":7724,"ĠAuthor":7725,"BB":7726,"CENT":7727,"heading":7728,"PAT":7729,"Ignore":7730,"constants":7731,"books":7732,"Emit":7733,"Ci":7734,"compact":7735,"ouse":7736,"ELEMENT":7737,"Blank":7738,"Audio":7739,"reflector":7740,"ROLE":7741,"CONST":7742,"leet":7743,"Background":7744,"PARAMETER":7745,"ony":7746,"AMPLE":7747,"Mware":7748,"today":7749,"ĠSec":7750,"unding":7751,"dialog":7752,"Mac":7753,"inject":7754,"chron":7755,"caller":7756,"ĠAccount":7757,"Social":7758,"purchase":7759,"REFER":7760,"COLOR":7761,"ĠoffsetGet":7762,"strtotime":7763,"Scopes":7764,"NOTICE":7765,"Confirmation":7766,"AO":7767,"ĠEk":7768,"middle":7769,"Aws":7770,"fixed":7771,"truncate":7772,"getAlias":7773,"ĠgetResponse":7774,"WebDriver":7775,"Sms":7776,"rendered":7777,"poll":7778,"ĠDire":7779,"GoogleCloud":7780,"etag":7781,"Namespaces":7782,"TARGET":7783,")]);<":7784,"Zero":7785,"flict":7786,"SORT":7787,"cour":7788,"assertEqual":7789,"CodeSniffer":7790,"uring":7791,"acing":7792,"beginTransaction":7793,"ĠgetPage":7794,"algorithm":7795,"setContent":7796,"accounts":7797,"perPage":7798,"Csv":7799,"reflectionClass":7800,"Scale":7801,"ars":7802,"inger":7803,"agine":7804,"channels":7805,"more":7806,"CL":7807,"domains":7808,"Finish":7809,"dynamic":7810,"ĠgetTitle":7811,"ĠNotification":7812,"PhoneNumber":7813,"ĠLocale":7814,"Locales":7815,"upgrade":7816,"eval":7817,"Mockery":7818,"tinct":7819,"ĠFixtureB":7820,"tracker":7821,"NORM":7822,"utils":7823,"Localized":7824,"iis":7825,"getter":7826,"iny":7827,"referer":7828,"mut":7829,"Complex":7830,"weet":7831,"biz":7832,"ĠLocation":7833,"Optional":7834,"Subscribed":7835,"Ġprovide":7836,"ĠEd":7837,"hs":7838,"crud":7839,"rewind":7840,"ux":7841,"vp":7842,"ĠModules":7843,"beConstructedWith":7844,"plied":7845,"Switch":7846,"ĠComment":7847,"ips":7848,"Board":7849,"TING":7850,"rval":7851,"locales":7852,"Cmd":7853,"competency":7854,"Ġafter":7855,"ĠBx":7856,"maximum":7857,"Ġencode":7858,"LATION":7859,"STEM":7860,"Prin":7861,">)))<":7862,"ERS":7863,"EK":7864,"Ġdefine":7865,"ĠgetPath":7866,"failure":7867,"Ġx":7868,"Snippet":7869,"Ġobject":7870,"outine":7871,"defaultHeaders":7872,"chunks":7873,"Atom":7874,"rd":7875,"TypeInterface":7876,"itemap":7877,"Ġrex":7878,"impl":7879,"Deletes":7880,"StartTime":7881,"nd":7882,"ĠsetIs":7883,"getSub":7884,"gettype":7885,"excluded":7886,"ĠoffsetUnset":7887,"ics":7888,"assertEmpty":7889,"ĠImp":7890,"GRE":7891,"ufactur":7892,"getErrors":7893,"stackPos":7894,">__(":7895,"Ġvalue":7896,"deferred":7897,"getDocument":7898,">})":7899,"fixer":7900,"ĠClaroline":7901,"ĠOption":7902,"merged":7903,"Ġ{$":7904,"Readable":7905,"ĠArrayCollection":7906,"ĠoffsetExists":7907,"getLabel":7908,"coordinate":7909,"udo":7910,"StorageInterface":7911,"getReal":7912,"struction":7913,"HttpRequest":7914,"Ġj":7915,"sms":7916,"ĠgetB":7917,"assertIs":7918,"ĠRepository":7919,"Iface":7920,"Apps":7921,"realpath":7922,"redirectTo":7923,"rewall":7924,"Ġappend":7925,"SAN":7926,"setMethod":7927,"Grammar":7928,"bi":7929,"binding":7930,"getRoot":7931,"SHA":7932,"ĠInputArgument":7933,"setAccessible":7934,"mc":7935,"unserialize":7936,"getElement":7937,"createCommand":7938,"].<":7939,"ĠNew":7940,"quality":7941,"LITY":7942,"ONT":7943,"tals":7944,"Comparison":7945,"][":7946,"DESC":7947,"Ġmerge":7948,"sendMessage":7949,"RST":7950,"tenance":7951,"visor":7952,"Matching":7953,"ua":7954,"ĠCloud":7955,"Running":7956,"spaces":7957,"basket":7958,"rex":7959,"Prototype":7960,"dot":7961,"ĠSQL":7962,"prep":7963,"SECON":7964,"ĠPromise":7965,"street":7966,"Relationships":7967,"Props":7968,">){":7969,"undles":7970,"Pipeline":7971,"ilation":7972,"DEN":7973,"snippet":7974,"vention":7975,"listen":7976,"ĠCart":7977,"ways":7978,"Ġapi":7979,"ĠConstraint":7980,"ABLED":7981,"VC":7982,"ObjectState":7983,"Fixed":7984,"Throws":7985,"()))<":7986,"Ġunpack":7987,"ĠObjectSerializer":7988,"setRequest":7989,"Compati":7990,"ĠGit":7991,"proc":7992,"Ġwhere":7993,"ServiceLocator":7994,"Syntax":7995,"ĠHash":7996,"ormalization":7997,"checkout":7998,"veloper":7999,"virt":8000,"publisher":8001,"objectManager":8002,"ErrorHandler":8003,"ICAL":8004,"Stat":8005,"observer":8006,"Begin":8007,"abaCloud":8008,"getLanguage":8009,"Installed":8010,"ĠTim":8011,"calc":8012,"yna":8013,"Pas":8014,"getChild":8015,"onNext":8016,"hasOne":8017,"assertNotEmpty":8018,"distance":8019,"Craft":8020,"><<<":8021,"ObjectType":8022,"ĠPr":8023,"iisoft":8024,"gate":8025,"Rec":8026,"statuses":8027,"rtn":8028,"wares":8029,"Wait":8030,"keek":8031,"EventDispatcherInterface":8032,"Ġ|=":8033,"REF":8034,"stdout":8035,"Markdown":8036,"ArrayAccess":8037,"Persistent":8038,"Ġstrtr":8039,"Transactions":8040,"ĠSecIT":8041,"foreignKey":8042,"picture":8043,"Ġzen":8044,"optim":8045,"addAttribute":8046,"claim":8047,"ftp":8048,"Delay":8049,"getSerializer":8050,"ToMany":8051,"metrics":8052,"Matrix":8053,"carrier":8054,"XY":8055,"viewData":8056,"receiver":8057,"must":8058,"__,<":8059,"VATE":8060,"ARG":8061,"OwnerAccount":8062,"lap":8063,"Received":8064,"wor":8065,"!==":8066,"smtp":8067,"ef":8068,"sets":8069,"ĠFe":8070,"=$_":8071,"Granted":8072,"Expect":8073,"rong":8074,"yu":8075,"Sent":8076,"respond":8077,"compress":8078,"NotNull":8079,"Started":8080,"PASSWORD":8081,"Ġdis":8082,"getOutput":8083,"ixin":8084,"acebook":8085,"EXIST":8086,"ResultSet":8087,"ament":8088,"addresses":8089,"getNext":8090,"searchCriteria":8091,"steps":8092,"Trade":8093,"Follow":8094,"More":8095,"MethodName":8096,"chmod":8097,"LECT":8098,"Cert":8099,"Measure":8100,"ĠCM":8101,"ĠExtension":8102,"setAllowed":8103,"directive":8104,"STO":8105,"scalarNode":8106,"Swoole":8107,"Ġfread":8108,"Ġmodel":8109,"generated":8110,"ĠShopsys":8111,"Axis":8112,"Anchor":8113,"UUID":8114,"ĠRedis":8115,"Lazy":8116,"transient":8117,"facade":8118,"inv":8119,"ĠgetCurrent":8120,"ĠYiisoft":8121,"lide":8122,"ConnectionInterface":8123,">__(<":8124,"arp":8125,"Pick":8126,"Fallback":8127,"typeName":8128,"Resolve":8129,"camel":8130,"sendRequest":8131,"getDate":8132,"offer":8133,"]),<":8134,"Program":8135,"ItemId":8136,"hosts":8137,"auses":8138,"getEmail":8139,"Discovery":8140,"minimum":8141,"EntityManagerInterface":8142,"ITLE":8143,"andbox":8144,"izard":8145,"divid":8146,"removed":8147,"ĠBehat":8148,">)],<":8149,"getState":8150,"Protected":8151,"ĠEkyna":8152,"ones":8153,"digit":8154,"pixel":8155,"lev":8156,"ĠInvo":8157,"scopes":8158,"Cookies":8159,"decorated":8160,"markets":8161,"fieldValue":8162,"MAND":8163,"ResponseException":8164,"OLEAN":8165,"presenter":8166,"Signal":8167,"setHeader":8168,"Altern":8169,"getResponseBody":8170,"postData":8171,"AFTER":8172,"ĠgetFile":8173,"Ġvisit":8174,"ASN":8175,"ĠDOMDocument":8176,"ĠArcan":8177,"ASC":8178,"CKET":8179,"anned":8180,"23":8181,"Denied":8182,"icted":8183,"ExceptionInterface":8184,"Formatted":8185,"ww":8186,"checkRepeatedField":8187,"ĠURL":8188,"menus":8189,"attle":8190,"Completed":8191,"RITE":8192,"Ġhex":8193,"createTable":8194,"nl":8195,"Alpha":8196,"ByType":8197,"ĠFac":8198,"FR":8199,"Math":8200,"remember":8201,"partition":8202,"Fetcher":8203,"FLO":8204,"ĠEz":8205,"atoum":8206,"Controls":8207,"Website":8208,"unpack":8209,"publicKey":8210,"matic":8211,"getProduct":8212,"compiled":8213,"possible":8214,"UAGE":8215,"inc":8216,"stripos":8217,"Ġ):":8218,"DocBlock":8219,"EC":8220,"ung":8221,"Fire":8222,"ĠAws":8223,"isode":8224,"Inv":8225,"via":8226,"patterns":8227,"carry":8228,"Candidate":8229,"Force":8230,"sites":8231,"Party":8232,"Documents":8233,"scheduler":8234,"transactions":8235,"overwrite":8236,"suite":8237,"ĠRecursive":8238,"andex":8239,"ĠMa":8240,"CONTA":8241,"getStart":8242,"NEL":8243,"Correct":8244,"pht":8245,"unication":8246,"getG":8247,"conversation":8248,"countries":8249,"minder":8250,"minator":8251,"Manifest":8252,"rouped":8253,"Dol":8254,"ĠsetValue":8255,"getProject":8256,"UD":8257,"Popu":8258,"getters":8259,"Slu":8260,"medi":8261,"qp":8262,"Comparator":8263,"Mysql":8264,"ĠPH":8265,"MenuItem":8266,"Least":8267,"fld":8268,"BW":8269,"getSchema":8270,"jsonSerialize":8271,"Terms":8272,"ressed":8273,"orderby":8274,"startElement":8275,"qr":8276,"SHORT":8277,"Double":8278,"Virtual":8279,"Ġfloat":8280,"Singleton":8281,"ADDRESS":8282,"_(<":8283,"functionName":8284,"oph":8285,"paymentMethod":8286,"CRYPT":8287,"Ġdecode":8288,"sortBy":8289,"ĠPATHINFO":8290,"ĠMongo":8291,"ational":8292,"=[]":8293,"lifetime":8294,"ĠBitrix":8295,"Pending":8296,"Restriction":8297,"artifact":8298,"Dimensions":8299,"vie":8300,"onic":8301,"Ġno":8302,"ĠAPP":8303,"NORMAL":8304,"getTableName":8305,"rss":8306,"ĠUnit":8307,"ĠGo":8308,"firstName":8309,"setUser":8310,"PDOException":8311,"Front":8312,"ONLY":8313,"CLIENT":8314,"AUTO":8315,"OfWork":8316,"ĠSelect":8317,"radius":8318,"Spy":8319,"mil":8320,"acher":8321,"bag":8322,"np":8323,"Limitation":8324,"Expiration":8325,"BEFORE":8326,"emon":8327,"ewire":8328,"getN":8329,"endElement":8330,"onus":8331,"osc":8332,"sibility":8333,"Amazon":8334,"Avatar":8335,"elia":8336,"rad":8337,"UL":8338,"Draw":8339,"serial":8340,"ĠDateTimeImmutable":8341,"td":8342,"Already":8343,"inventory":8344,"ĠEzSystems":8345,"ĠGuzzle":8346,"Ġ++":8347,"ĠBook":8348,"information":8349,"literal":8350,"SQ":8351,"Purchase":8352,"ĠValidate":8353,"Logging":8354,"badge":8355,"Concerns":8356,">]])":8357,"ighb":8358,";?><":8359,"userData":8360,"ĠMeta":8361,"Kit":8362,"ĠMo":8363,"GetRequest":8364,"ĠBaseController":8365,"Share":8366,"Retail":8367,"ĠAlib":8368,"dashboard":8369,"wppa":8370,"Ews":8371,"Errs":8372,"apesh":8373,"skin":8374,"Ġmoodle":8375,"tenv":8376,"converted":8377,"COPE":8378,"TR":8379,"Sylius":8380,"Scheduler":8381,"Ġtype":8382,"Division":8383,"apeshell":8384,"live":8385,"characters":8386,"/$":8387,"Forum":8388,"verti":8389,"jected":8390,"Updates":8391,"NodeInterface":8392,"Denormalizer":8393,"Arrays":8394,"Ġa":8395,"unq":8396,"setIs":8397,"validators":8398,"prod":8399,"(...":8400,"ĠgetInstance":8401,"Minutes":8402,"Online":8403,"runner":8404,"accountId":8405,"elem":8406,"assertion":8407,"ĠgetIn":8408,"Round":8409,"School":8410,"Tpl":8411,"ObjectBehavior":8412,"traits":8413,"breadcrumbs":8414,"filled":8415,"OrCreate":8416,"business":8417,"Implementation":8418,"MODI":8419,"documents":8420,"symbols":8421,"Prophecy":8422,"Artifact":8423,"UnexpectedValueException":8424,"exactly":8425,"ĠHyper":8426,"ĠCal":8427,"ambig":8428,"Connected":8429,"Ġspl":8430,"POSTFIELDS":8431,"ĠgetCode":8432,"getRoute":8433,"fieldErrs":8434,"aff":8435,"ĠAlibabaCloud":8436,"PDF":8437,"Ġsw":8438,"flashdata":8439,"dql":8440,"ĠNetgen":8441,"getMetadata":8442,"Capabilities":8443,"Configurator":8444,"'>;<":8445,"Am":8446,"Split":8447,"Nova":8448,"assertStringContainsString":8449,"Envelope":8450,"Notice":8451,"DefaultValue":8452,"ODM":8453,"ĠPre":8454,"Present":8455,"matching":8456,"MATCH":8457,"promotion":8458,"ĠMoney":8459,"modifier":8460,"calculator":8461,"ĠObjectBehavior":8462,"Profiler":8463,"BOOLEAN":8464,"doctrine":8465,"hicle":8466,"mitive":8467,"MongoDB":8468,"Infos":8469,"countryCode":8470,"BRA":8471,"getTotal":8472,"ĠReact":8473,"FieldDefinition":8474,"dto":8475,"vince":8476,"cerpt":8477,"gender":8478,"Dot":8479,"ails":8480,"ĠPhpCsFixer":8481,"oa":8482,"blueprint":8483,"partner":8484,"filterBy":8485,"OrderId":8486,"ambigu":8487,"AccountId":8488,"window":8489,"CONNECT":8490,"RAW":8491,"setStatus":8492,"MOVE":8493,"SYSTEM":8494,"Holiday":8495,"getResponseHeaders":8496,"mainEntity":8497,"Ġ<<<'":8498,"Faker":8499,"OLDER":8500,"classMetadata":8501,"Patterns":8502,"WA":8503,"Ġmk":8504,"ĠBl":8505,"emails":8506,"ArrayObject":8507,"Audit":8508,"chapter":8509,"clusion":8510,"getDoctrine":8511,"Checkbox":8512,"Glyph":8513,"ifference":8514,"loss":8515,"guest":8516,"virtual":8517,"supplier":8518,"tinuous":8519,"Press":8520,"ĠVMware":8521,"Sku":8522,"appId":8523,"CHANGE":8524,"calls":8525,"Transformation":8526,"standard":8527,"Authenticator":8528,"ObjectManager":8529,"Href":8530,"Basket":8531,"getInput":8532,"features":8533,"ĠGeneric":8534,"notifications":8535,"water":8536,"Channels":8537,"bulk":8538,"_;<":8539,"Handling":8540,"WRITE":8541,"uniqid":8542,"dictionary":8543,"zo":8544,"Ġsite":8545,"ĠFlu":8546,"DING":8547,"Operand":8548,"Expan":8549,"ĠMis":8550,"Pub":8551,"translated":8552,"Enums":8553,"bid":8554,"enrol":8555,"ĠCurrency":8556,"envelope":8557,"shouldHaveType":8558,"Validators":8559,"predicate":8560,"Availability":8561,"ana":8562,"getStorage":8563,"multipartContents":8564,"Neg":8565,"ĠPimcore":8566,"lastName":8567,"Plus":8568,"ucwords":8569,"Ġcontext":8570,"ceptor":8571,"ĠDateTimeZone":8572,"BL":8573,"getLogger":8574,"EntityRepository":8575,"ales":8576,"directories":8577,"Plain":8578,"Ġexport":8579,"Ġput":8580,"DoesNot":8581,")-<":8582,"oh":8583,">;}<":8584,"getFilename":8585,"consume":8586,"entityName":8587,"JsonSerializable":8588,"vat":8589,"Authenticated":8590,"Dirs":8591,"ĠRender":8592,"ention":8593,"legal":8594,"Oauth":8595,"DOMElement":8596,"getExtension":8597,"CONTEXT":8598,"migrate":8599,"Community":8600,"Submission":8601,"capture":8602,"FLOAT":8603,"36":8604,"casecmp":8605,"Vote":8606,"repl":8607,"perms":8608,"rides":8609,"threshold":8610,"__).<":8611,"ĠsetResource":8612,"Crawler":8613,"ĠgetNext":8614,"601":8615,"SETTING":8616,"qty":8617,"Guzzle":8618,"usion":8619,"tivities":8620,"boundary":8621,"pic":8622,"getString":8623,"ircle":8624,"runch":8625,"Cf":8626,"oral":8627,"Idx":8628,"Dr":8629,"Ġfiles":8630,"Strict":8631,"Ġsafe":8632,"Endian":8633,"Ġsetup":8634,"collector":8635,"oole":8636,"ĠSta":8637,"wg":8638,"Ġverify":8639,"filesize":8640,"ĠReport":8641,"HU":8642,"does":8643,"addTo":8644,"ĠgetClient":8645,"ĠsetDescription":8646,"isActive":8647,"bp":8648,"dh":8649,"ĠSen":8650,"Logical":8651,"dient":8652,"ĠStore":8653,"roid":8654,"commend":8655,"createFromFormat":8656,"Dataset":8657,"hmac":8658,"Dete":8659,"fopen":8660,"ĠPhpOffice":8661,"bottom":8662,"Ġpht":8663,"blob":8664,"getFields":8665,"itemId":8666,"Duplicate":8667,"rep":8668,"Optim":8669,"ConfigException":8670,"TITLE":8671,"ĠFoo":8672,"Sys":8673,"privateKey":8674,"getAction":8675,"PATTERN":8676,"SANITI":8677,"outer":8678,"Locked":8679,"EDIT":8680,"Final":8681,"Into":8682,"Prec":8683,"throwable":8684,"getItems":8685,"crypto":8686,"UNICODE":8687,"Worse":8688,"Put":8689,"eres":8690,"EventStore":8691,"authors":8692,"Toolbar":8693,"ĠPerson":8694,"ufacturer":8695,"sep":8696,"LICATION":8697,"ĠAuto":8698,"ĠFaker":8699,"NodeType":8700,"ADMINLANG":8701,"++){<":8702,"clusive":8703,"connections":8704,"Maker":8705,"variableName":8706,"setResponseObject":8707,"ius":8708,"Shape":8709,"ĠConstants":8710,"Da":8711,"MediaType":8712,"EXCEPTION":8713,"alCode":8714,"Txt":8715,"recur":8716,"CreateStruct":8717,"Through":8718,"Microsoft":8719,"fers":8720,"edu":8721,"ĠMonolog":8722,"BAD":8723,"Es":8724,"ForSerialization":8725,"tester":8726,"Express":8727,"ĠBackend":8728,"TypeId":8729,"ĠWBW":8730,"sitem":8731,"currencies":8732,"MQ":8733,"OG":8734,"GreaterThan":8735,"CALE":8736,"]];<":8737,"Submitted":8738,"magic":8739,"answers":8740,"getStore":8741,"folders":8742,"sight":8743,"dummy":8744,"Colors":8745,"ĠDeviceType":8746,"privacy":8747,"ATIVE":8748,"BOOL":8749,"migrations":8750,"STYLE":8751,"elet":8752,"Black":8753,"Identical":8754,"torrent":8755,"Quality":8756,"DOWN":8757,"StateInterface":8758,"CALL":8759,"third":8760,"Collab":8761,"general":8762,"Actor":8763,"storeId":8764,"EzPlatform":8765,"ĠTeam":8766,"Ġeagle":8767,"Attrs":8768,"Voice":8769,"regexp":8770,"afka":8771,"orWhere":8772,"iance":8773,"acces":8774,"eme":8775,"getVar":8776,"Hit":8777,"pip":8778,"getValidation":8779,"notation":8780,"atory":8781,"ONAPP":8782,"SANITIZE":8783,"GUI":8784,"Terminal":8785,"levels":8786,"Ġxml":8787,"ItemInterface":8788,"ĠZip":8789,"38":8790,"setParent":8791,"ResponseTransfer":8792,"Ġsort":8793,"wrapped":8794,"setters":8795,"returnUrl":8796,"stmts":8797,"8601":8798,"linked":8799,"encryption":8800,"ĠTABLE":8801,"cls":8802,"Decoder":8803,"twitter":8804,"lemented":8805,"Smart":8806,"glyph":8807,"callbacks":8808,"expand":8809,"isIn":8810,"Manipulator":8811,"ĠLine":8812,"dns":8813,"ĠColor":8814,"Countries":8815,"minute":8816,"ĠSymplify":8817,"eg":8818,">]!=<":8819,"ĠTraversable":8820,"Exporter":8821,"runchbutton":8822,"tenant":8823,"prise":8824,"getParams":8825,"ĠWid":8826,"ĠPackage":8827,"setMethods":8828,"SV":8829,"olations":8830,"isAdmin":8831,"yQualified":8832,"getInfo":8833,"ctives":8834,"cas":8835,"ContentRepository":8836,"PHPFHIRConstants":8837,"Docs":8838,"Facet":8839,"formData":8840,"WHITESPACE":8841,"Ġ!($":8842,"BIG":8843,"ki":8844,"ATA":8845,"webhook":8846,"Membership":8847,"LIB":8848,"Bounds":8849,"ĠAli":8850,"sanitizeForSerialization":8851,"mat":8852,"ĠCompiler":8853,"ORIZ":8854,"IME":8855,"IES":8856,"questions":8857,"Devtools":8858,"Delimiter":8859,"UserInfo":8860,"VARI":8861,"hydrate":8862,"Skipped":8863,"ĠgetMax":8864,"mim":8865,"Ġchange":8866,"isPost":8867,"ReflectionMethod":8868,"conversion":8869,"Perm":8870,"Tenant":8871,"DNS":8872,"CC":8873,"Ġrandom":8874,"ĠArticle":8875,"ĠgetKey":8876,"OfPage":8877,"FirstName":8878,"wsdl":8879,"LANGUAGE":8880,"Under":8881,"Need":8882,"increments":8883,"Hour":8884,"ĠAbstractType":8885,"getTag":8886,"ssh":8887,"swoole":8888,"InternalType":8889,"quoteIdentifier":8890,"WorseReflection":8891,"Ġ[]),<":8892,"pull":8893,"installer":8894,"Ġ-$":8895,"attribs":8896,"uffman":8897,"restaurant":8898,"EOD":8899,"agnos":8900,"using":8901,"casts":8902,"getRow":8903,"starts":8904,"Dialogflow":8905,"ĠTree":8906,"DOMDocument":8907,"DataSet":8908,"LineItem":8909,"cipe":8910,"was":8911,"FFC":8912,"SW":8913,"Propel":8914,"propertyValue":8915,"lng":8916,"wechat":8917,"getID":8918,"ĠGrid":8919,"getFilter":8920,"getChildren":8921,"PLACE":8922,"fective":8923,"Marker":8924,"contentId":8925,"Forward":8926,"dropIfExists":8927,"CssClass":8928,"ĠSource":8929,"[($":8930,"px":8931,"pipeline":8932,"Ġfloatval":8933,"SCHE":8934,"Prote":8935,"major":8936,"PhpSpreadsheet":8937,"ĠDescribe":8938,"Ġdebug":8939,"controls":8940,"ingerprint":8941,"ygon":8942,"ĠRO":8943,"Inflector":8944,"FILENAME":8945,"Cover":8946,"ordered":8947,"ĠElastic":8948,"ipanel":8949,"conditional":8950,"Ġmy":8951,"Plural":8952,"ĠMY":8953,"Viewer":8954,"cards":8955,"Ġhipanel":8956,"paid":8957,"fol":8958,"getRaw":8959,"strstr":8960,"ĠSk":8961,"Upgrade":8962,"expiry":8963,"setDefaults":8964,"errstr":8965,"Guest":8966,"craft":8967,"ceed":8968,"players":8969,"ĠAuthentication":8970,"ĠSql":8971,"tices":8972,"AbstractType":8973,"CLE":8974,"userinfo":8975,"edge":8976,"ĠgetSchema":8977,"complex":8978,"httpRequest":8979,"apiVersion":8980,"cipal":8981,">-<":8982,"setLabel":8983,"Composite":8984,"Phalcon":8985,"alle":8986,"pan":8987,"TRANS":8988,"estone":8989,"EndTime":8990,"Hooks":8991,"srv":8992,"requestData":8993,"ura":8994,"Configure":8995,"Increment":8996,"UBLE":8997,"ĠName":8998,"touch":8999,"Drivers":9000,"ALLOWED":9001,"wallet":9002,"ishlist":9003,"ivewire":9004,"packageName":9005,"irror":9006,"Ġ<?=":9007,"participant":9008,"Ġze":9009,"unar":9010,"Projection":9011,"libxml":9012,"CASE":9013,"Importer":9014,"yaml":9015,"STREAM":9016,"EndDate":9017,"ucene":9018,"CNF":9019,"eno":9020,"WillReturn":9021,"eller":9022,"look":9023,"ĠCall":9024,"ĠgetOptions":9025,"ubrid":9026,"quoted":9027,"ĠGrav":9028,"Implemented":9029,"utoloader":9030,")]<":9031,"jwt":9032,"CAPT":9033,"Datetime":9034,"elf":9035,"verser":9036,"sitemap":9037,"win":9038,"Injector":9039,"nu":9040,"oDb":9041,"counts":9042,"Late":9043,"Ġro":9044,"cores":9045,"ĠArrayObject":9046,"asArray":9047,"Writable":9048,"Sec":9049,"scal":9050,"tricted":9051,"Pricing":9052,"wind":9053,"dataSource":9054,"IfNot":9055,"banner":9056,">):<":9057,"sur":9058,"EventInterface":9059,"attributeName":9060,"Blob":9061,"Exec":9062,"Segments":9063,"CATION":9064,"Callbacks":9065,"stylesheet":9066,"Drive":9067,"apeshellarg":9068,"ULL":9069,"pat":9070,"()],<":9071,"QueryString":9072,"Magic":9073,"ilds":9074,"sio":9075,"ĠRead":9076,"oucher":9077,"deep":9078,"ĠThelia":9079,"Cash":9080,"sock":9081,"serviceLocator":9082,"datab":9083,"Gui":9084,"Java":9085,"HUFF":9086,"Album":9087,"Resolution":9088,"ĠLar":9089,"SAML":9090,"ori":9091,"Az":9092,"school":9093,"Flush":9094,"ĠCUR":9095,"wa":9096,"retty":9097,"MISSION":9098,"ĠGeneralUtility":9099,"Ġlogin":9100,"MappingObject":9101,"Translatable":9102,"derr":9103,"Perform":9104,"UST":9105,"HUFFMAN":9106,"Solution":9107,"ShortName":9108,"Ġscope":9109,"Policies":9110,"cacti":9111,"Producer":9112,"getSite":9113,"approved":9114,"IteratorIterator":9115,"ĠgetTotal":9116,"ApiCore":9117,"rer":9118,"ilt":9119,"unded":9120,"fieldset":9121,"ercise":9122,"ĠABS":9123,"Until":9124,"ĠHuffman":9125,"customerId":9126,"Sig":9127,"Brand":9128,"ĠHandler":9129,"markTest":9130,"ĠDefinition":9131,"warehouse":9132,"innerSize":9133,"Bits":9134,"lating":9135,"markdown":9136,"Levels":9137,"aid":9138,"getenv":9139,"ligh":9140,"roadcast":9141,"inf":9142,"getStream":9143,"Pager":9144,"pus":9145,"ArrayCollection":9146,"Widgets":9147,"SOURCE":9148,"Apply":9149,"ĠFin":9150,"updatedAt":9151,"Scheduled":9152,"Windows":9153,"InstanceId":9154,"ilege":9155,"elog":9156,"ĠgetIterator":9157,"Characters":9158,"Emitter":9159,"shutdown":9160,"Communication":9161,"Own":9162,"dropColumn":9163,"ORAGE":9164,"aily":9165,"getComponent":9166,"ĠAR":9167,"sentence":9168,"Csrf":9169,"Ġ;":9170,"kt":9171,"Ġupload":9172,"TimeZone":9173,"verbose":9174,"completed":9175,"entityId":9176,"recipients":9177,"entityClass":9178,"specification":9179,"setMax":9180,"ĠgetApi":9181,"Inputs":9182,"ech":9183,"rp":9184,"ViewHelper":9185,"CRM":9186,"CM":9187,"coal":9188,"ĠDriver":9189,"legacy":9190,"Goods":9191,"contentInfo":9192,"eration":9193,"fieldname":9194,"getCommand":9195,"istant":9196,"Ġpow":9197,"agonIE":9198,"Refer":9199,"riends":9200,"dividual":9201,"SEARCH":9202,"SubscribedEvents":9203,"Guid":9204,"tokenStorage":9205,"WillReturnMappingObject":9206,"Specific":9207,"working":9208,"getIndex":9209,"raise":9210,"ĠPassword":9211,"ACCOUNT":9212,"Glob":9213,"Scan":9214,"scheduled":9215,"ĠDev":9216,"Ġversion":9217,"rick":9218,")).<":9219,"orizontal":9220,"usic":9221,"xmlWriter":9222,"credential":9223,"NAL":9224,"ĠStruct":9225,"onomies":9226,"Lat":9227,"tlement":9228,"Directories":9229,"Booking":9230,"radio":9231,"UserData":9232,"during":9233,"ya":9234,"ĠgetClass":9235,"ĠsetData":9236,"paragraph":9237,"ĠOPTION":9238,"getMax":9239,"contacts":9240,"CAL":9241,"swap":9242,"dropdown":9243,"DN":9244,"arum":9245,"MockObject":9246,"-(<":9247,"Ġstrval":9248,"iconv":9249,"fan":9250,"ĠCar":9251,"tele":9252,"htmlOptions":9253,"Med":9254,"HTTPHEADER":9255,"phoneNumber":9256,"ĠtestIs":9257,"wr":9258,">)).<":9259,"01":9260,"ĠSwoole":9261,"ClientException":9262,"ERIC":9263,"datasource":9264,"ĠgetT":9265,"ĠgetMethod":9266,"izations":9267,"ados":9268,">])))":9269,"infos":9270,"btn":9271,"Micro":9272,"replacements":9273,"logout":9274,"rection":9275,"AdapterInterface":9276,"UserGroup":9277,"maxLength":9278,"ĠProphecy":9279,"due":9280,"Seller":9281,">]:<":9282,"atal":9283,"createRequest":9284,"Partner":9285,"driv":9286,"ĠtestAdd":9287,"closed":9288,"ĠMiddleware":9289,"Configs":9290,"getFactory":9291,"breadcrumb":9292,"fav":9293,"Grant":9294,"Aspect":9295,"mantic":9296,"ĠProoph":9297,"SPECIFIED":9298,"getFileName":9299,"Ġinter":9300,"Ġsha":9301,"ĠABSPATH":9302,"lie":9303,"getEvent":9304,"isError":9305,"userRepository":9306,"SimpleXMLElement":9307,"ĠfindBy":9308,"erator":9309,"Ġcms":9310,"kes":9311,"FK":9312,"ĠgetVersion":9313,"orderItem":9314,"ĠMin":9315,"Broadcast":9316,"fieldDefinition":9317,"ĠKwc":9318,"pkg":9319,"getR":9320,"estor":9321,"tentialAction":9322,"Nabu":9323,"Seo":9324,"THE":9325,"writeVarint":9326,"ĠMetadata":9327,"Ġattribute":9328,"atured":9329,"checksum":9330,"TRO":9331,"prin":9332,"Percentage":9333,"connected":9334,"quare":9335,"Ġ));<":9336,">{":9337,"processing":9338,"ModelInterface":9339,"Whitespace":9340,"ingHours":9341,"rowse":9342,"SING":9343,"ĠbuildForm":9344,"Termin":9345,"CacheKey":9346,"started":9347,"tten":9348,"Software":9349,"contentObject":9350,"tablename":9351,"Cross":9352,"ĠEX":9353,"splice":9354,"()[$":9355,"TypeName":9356,"cam":9357,"ĠgetSource":9358,"atLeast":9359,"Translated":9360,"Opts":9361,"Initialized":9362,"Targeting":9363,"pageNumber":9364,"Traversable":9365,"accessibility":9366,"42":9367,"Sitemap":9368,"ĠPayum":9369,"setter":9370,"MySql":9371,"getClassName":9372,"agrid":9373,"enth":9374,">])));<":9375,"scenario":9376,"sResponse":9377,"aParams":9378,"ĠgetField":9379,"Adjustment":9380,"uni":9381,"umul":9382,"customize":9383,"getUsername":9384,"contexts":9385,"Buttons":9386,"mdate":9387,"PK":9388,"bn":9389,"setFlash":9390,"gettext":9391,"ingBox":9392,"ĠChrome":9393,"Ġ.$":9394,"DateTimeZone":9395,"ĠContinuous":9396,"Saml":9397,"ĠFacade":9398,"ysystem":9399,"UpdatedAt":9400,"Reservation":9401,"lesson":9402,"addItem":9403,"shape":9404,"worksheet":9405,"Ġopenssl":9406,"tistic":9407,"hub":9408,"ĠgetQuery":9409,"already":9410,"challenge":9411,"REFERENCE":9412,"ĠgetConfig":9413,"Saved":9414,"populate":9415,")><":9416,"small":9417,"alternateName":9418,"cing":9419,"domainName":9420,"Vector":9421,"native":9422,"EP":9423,"mainEntityOfPage":9424,"Sniffs":9425,"getTrace":9426,"fm":9427,"DOUBLE":9428,"Layouts":9429,"tifiable":9430,"rawData":9431,"going":9432,">);?><":9433,"Act":9434,"generateUrl":9435,"createView":9436,"requestId":9437,"ĠsetDefault":9438,"Badge":9439,"SELECT":9440,"Shopware":9441,"ĠgetD":9442,"ĠSecurity":9443,";$":9444,"ining":9445,"facet":9446,"getApplication":9447,"escaped":9448,"getInt":9449,"setOptions":9450,"setAllowedTypes":9451,"Contacts":9452,"iative":9453,"::_(<":9454,"]],<":9455,"Ġoutput":9456,"Compare":9457,"Suggestion":9458,"objattr":9459,"getE":9460,"assertSession":9461,"vided":9462,"ĠHyperf":9463,"getValues":9464,"Jo":9465,"getWidth":9466,"articles":9467,"machine":9468,"dimensions":9469,"seudo":9470,"Ġexists":9471,"numbers":9472,"LUDE":9473,"sdl":9474,"axis":9475,"apsed":9476,"PluginManager":9477,"fmt":9478,"Multipart":9479,"ĠSwoft":9480,"TABLET":9481,"getReference":9482,"MET":9483,"ĠJsonSerializable":9484,"hydrator":9485,"isInstanceOf":9486,"focus":9487,"saniti":9488,"ĠCrunchbutton":9489,"Signed":9490,"za":9491,"ente":9492,"imals":9493,"ĠFree":9494,"assigned":9495,"fr":9496,"included":9497,"warn":9498,"Enter":9499,"targets":9500,"legend":9501,"raries":9502,"ĠParse":9503,"===<":9504,"ĠDig":9505,"Ġconstant":9506,"Coding":9507,"igee":9508,"Carrier":9509,"bal":9510,"severity":9511,"ĠSyn":9512,"floor":9513,"mu":9514,"sd":9515,"ĠShip":9516,"Capture":9517,"Elasticsearch":9518,"ked":9519,"getController":9520,"ada":9521,"warnings":9522,"Upper":9523,"morph":9524,"erve":9525,"Ġprovider":9526,"IGNO":9527,"deploy":9528,"pretty":9529,"ingleton":9530,"algo":9531,"ĠNAME":9532,"Pdo":9533,"Ġcalculate":9534,"getBlock":9535,"trash":9536,"CAN":9537,"ond":9538,"SAMPLE":9539,"DISP":9540,"clients":9541,"courses":9542,"bly":9543,"Hierarchy":9544,"ĠMain":9545,"SIB":9546,"ĠBinary":9547,"Coord":9548,"setField":9549,"ĠsetStatus":9550,"sdk":9551,"getGroup":9552,"membership":9553,"Contao":9554,"criptions":9555,"maps":9556,"Wildcard":9557,"reject":9558,"ĠgetError":9559,"Delta":9560,"PROCESS":9561,"Kwf":9562,"Ġconnect":9563,"checker":9564,"newName":9565,"Ġgetid":9566,"CORE":9567,"etermine":9568,").":9569,"walker":9570,"instanceId":9571,"Processed":9572,"dbName":9573,"gears":9574,"loye":9575,"decorator":9576,"Ġimport":9577,"rmdir":9578,"getSettings":9579,"UNIT":9580,"LASH":9581,"Rendering":9582,"division":9583,"Rot":9584,"DODB":9585,"NET":9586,"Folders":9587,"atingDescription":9588,"ambiguatingDescription":9589,"DAO":9590,"hal":9591,"anning":9592,"ĠCry":9593,"voke":9594,"getDataGenerator":9595,"ĠUpload":9596,"bosity":9597,"Ġsapi":9598,"ĠParserAction":9599,"tb":9600,"Prev":9601,"Voter":9602,"ĠGen":9603,"ĠSn":9604,"BINARY":9605,"odoyu":9606,"NUMERIC":9607,"Iterable":9608,"ĠBeta":9609,"Ġy":9610,"ĠgetList":9611,"FieldSet":9612,"ĠAnnotation":9613,"mor":9614,"MVC":9615,"ĠLoader":9616,"getUserAgent":9617,"Choices":9618,"ĠContinuousPipe":9619,"ĠArrayIterator":9620,"Ġiterator":9621,"responseData":9622,"FIRST":9623,"folio":9624,"Privacy":9625,"gd":9626,"Ġplugin":9627,"UnionType":9628,"getById":9629,"ancer":9630,"ĠMatch":9631,"fixtures":9632,"DIRECT":9633,">@$":9634,"routing":9635,"ancell":9636,"orrent":9637,"metaData":9638,"Newsletter":9639,"Fluid":9640,"ĠContact":9641,"chan":9642,"plus":9643,"ĠsetUser":9644,"Ġcache":9645,"Ass":9646,"deposit":9647,"sType":9648,"Ġfilesize":9649,"Expire":9650,"months":9651,"EventArgs":9652,"Closed":9653,"Monitoring":9654,"Crm":9655,"StartDate":9656,"'>,<":9657,"Fake":9658,"GB":9659,"cd":9660,"ĠtoString":9661,"21":9662,"Imap":9663,"LS":9664,"ira":9665,"ĠDa":9666,"subclass":9667,"userName":9668,"getSetting":9669,"ginfo":9670,"DOT":9671,"Attachments":9672,"ident":9673,"Remo":9674,"Clone":9675,"serviceId":9676,"Uploader":9677,"Dummy":9678,"Ġ??=":9679,"ĠVariable":9680,"ĠVAL":9681,"getNew":9682,"grant":9683,"StreamInterface":9684,"FFI":9685,"allocate":9686,"OfWeek":9687,"ĠSeeder":9688,"ĠOn":9689,"Seg":9690,"bac":9691,"Ġcase":9692,"NotEmpty":9693,"Requested":9694,"ascade":9695,"oned":9696,"setBody":9697,"lexible":9698,"LONG":9699,"ĠCH":9700,"[(":9701,"frames":9702,"Oc":9703,"adj":9704,"Append":9705,"ĠApiPlatform":9706,"getDomain":9707,"usort":9708,"Ġstripos":9709,"])){<":9710,"LETED":9711,"ĠtestCan":9712,"ANY":9713,"WEB":9714,"DevtoolsProtocol":9715,"ĠChromeDevtoolsProtocol":9716,"ParamsHeader":9717,"Ġlast":9718,"arded":9719,"INI":9720,"ĠGeo":9721,"Encoded":9722,"birth":9723,"pwd":9724,"servable":9725,"ĠMember":9726,"ving":9727,"tm":9728,"Ġucwords":9729,"TYPES":9730,"sugg":9731,"urldecode":9732,"docBlock":9733,"ĠBuild":9734,"ength":9735,"amage":9736,"gi":9737,"forge":9738,"blk":9739,"Ġ([<":9740,"Participant":9741,"Mapped":9742,"withHeader":9743,"PRIVATE":9744,"ĠVALUE":9745,"ads":9746,"UNSPECIFIED":9747,"openid":9748,"relationName":9749,"mnipay":9750,"CreateTime":9751,"GENER":9752,"ParamsHeaderDescriptor":9753,"REE":9754,"OutOf":9755,"__;<":9756,"CARD":9757,"ĠFlarum":9758,"completion":9759,"bench":9760,"ĠFormat":9761,"imap":9762,"DocComment":9763,"lc":9764,"pf":9765,"Exact":9766,"ORTED":9767,"headerSelector":9768,"ĠInt":9769,"ignored":9770,"getPrimaryKey":9771,"createTime":9772,"PIE":9773,"Getter":9774,"ĠgetDate":9775,"getPackage":9776,"setCell":9777,"rich":9778,"nowled":9779,"OPTIONS":9780,"flat":9781,"MIME":9782,"aches":9783,"Associ":9784,"Autoload":9785,"convertTo":9786,"stud":9787,"selectHeaders":9788,"temporary":9789,"ERT":9790,"ento":9791,"payments":9792,"InsertId":9793,"PropertyName":9794,"Reflector":9795,"ĠSER":9796,"oci":9797,"LoggedIn":9798,"onDelete":9799,"Lis":9800,"STD":9801,"React":9802,"Sections":9803,"Fo":9804,"ĠgetImage":9805,"LAST":9806,"grammar":9807,"ExtraBundle":9808,"tiny":9809,"HAND":9810,"canonical":9811,"quick":9812,"yun":9813,"esting":9814,"statistics":9815,"Advanced":9816,"isEqualTo":9817,"flu":9818,"COMMAND":9819,"ĠBig":9820,"THER":9821,"pivot":9822,"ĠBu":9823,"ission":9824,"limitation":9825,"TOP":9826,"igrator":9827,"setTemplate":9828,"TokenInterface":9829,"Normal":9830,"isEnabled":9831,"apps":9832,"ĠTypes":9833,"responseCode":9834,"requirements":9835,"ĠCharcoal":9836,"STORAGE":9837,"uro":9838,"openAPI":9839,"excel":9840,"modul":9841,">!$":9842,"rag":9843,"department":9844,"ĠQti":9845,"arer":9846,"ez":9847,"prompt":9848,"SITY":9849,"33":9850,"attempts":9851,"Docker":9852,"Anno":9853,"Ġnot":9854,"vides":9855,"Indexer":9856,"activation":9857,"Extend":9858,"27":9859,"leon":9860,"Alignment":9861,"TokenType":9862,"Editable":9863,"IGHT":9864,"Purifier":9865,"Github":9866,"pieces":9867,"Gate":9868,"sourcePath":9869,"ListRequest":9870,"Ġstripslashes":9871,"normalizer":9872,"vv":9873,"resourceType":9874,"stitution":9875,"Bal":9876,"OCI":9877,">.__(<":9878,"Ġsc":9879,"rott":9880,"InvalidProperties":9881,"PG":9882,"ĠOptions":9883,"entification":9884,"vm":9885,"ATER":9886,"izes":9887,"actionName":9888,"Pid":9889,"JO":9890,"ameleon":9891,"AdminUi":9892,"ĠBadMethodCallException":9893,"pipe":9894,"excerpt":9895,"DESCRIPTION":9896,"idence":9897,"TreeNode":9898,"elis":9899,"Sodium":9900,"sTo":9901,"ATED":9902,"Pivot":9903,"getTokens":9904,"userService":9905,"acao":9906,"CONSTR":9907,"ShoppingList":9908,"cmf":9909,"SCOPE":9910,"CURL":9911,"Done":9912,"LISH":9913,"addFilter":9914,"ORITY":9915,"Paginate":9916,"ĠMAX":9917,"eventManager":9918,"Territory":9919,"ĠconfigureOptions":9920,"PayPal":9921,"Fb":9922,"ĠFORM":9923,"ĠExpr":9924,"Digit":9925,"fileSystem":9926,"getPathname":9927,"ProfileId":9928,"gers":9929,"ĠLogin":9930,"trl":9931,"CHANNEL":9932,"getMessages":9933,"Blade":9934,"lunar":9935,"AcsRequest":9936,"javascript":9937,"ĠGu":9938,"pipes":9939,"ContentInfo":9940,"Checked":9941,"rollBack":9942,"canvas":9943,"Ġabstract":9944,"Removed":9945,"Fluent":9946,"Ta":9947,"getMeta":9948,"Ġflush":9949,"ĠgetForm":9950,"Scripts":9951,"ĠId":9952,"ino":9953,"Studio":9954,"FL":9955,"getTest":9956,"Ġini":9957,"Endpoints":9958,"atype":9959,"SED":9960,"collections":9961,"Ġmove":9962,"getFrom":9963,"printer":9964,"pher":9965,"addSelect":9966,"ApiKey":9967,"ĠTranslation":9968,"ResourceType":9969,"docs":9970,"ĠBxDol":9971,"Atten":9972,"getinfo":9973,"having":9974,"Lucene":9975,"Beta":9976,"sKey":9977,"simplexml":9978,">].":9979,"moji":9980,"onsor":9981,"paramName":9982,"Picture":9983,"lic":9984,"ĠRed":9985,"Payone":9986,"yyidx":9987,"ĠAppBundle":9988,"scanner":9989,"ĠgetE":9990,"sey":9991,"Req":9992,"checkInt":9993,"dav":9994,"pb":9995,"ĠSpec":9996,"refl":9997,"placeholders":9998,"WireFormat":9999,"09":10000,"getIterator":10001,"(){":10002,"ador":10003,"executeQuery":10004,"ĠgetTemplate":10005,"ĠGlobal":10006,"ipher":10007,"ĠLo":10008,">]][$":10009,"facebook":10010,"Ġdf":10011,"ĠChannel":10012,"bet":10013,"uncement":10014,"SIS":10015,"ĠezcDocument":10016,"MANY":10017,"EMIT":10018,"oleto":10019,"submenu":10020,"exporter":10021,"simpleRequest":10022,"LDAP":10023,"Prices":10024,"ja":10025,"hit":10026,"ĠgetBase":10027,"PEER":10028,"audit":10029,"ĠgetSubscribedEvents":10030,"Ġpg":10031,"Sur":10032,"Department":10033,"pathTo":10034,"PageSize":10035,"Deprecated":10036,"DirectoryIterator":10037,"->_(<":10038,"childNodes":10039,"ĠQueryBuilder":10040,"ags":10041,"CountryCode":10042,"Nb":10043,"APIN":10044,"CURRE":10045,"salesChannel":10046,"lastModified":10047,"TT":10048,"Ġ*=":10049,"withdraw":10050,"titles":10051,"ancellation":10052,"BIT":10053,"AsArray":10054,"Roll":10055,"VERBOSITY":10056,"Pixel":10057,"Parsing":10058,"battle":10059,"dist":10060,"Fast":10061,"cogn":10062,"Ġenable":10063,">)],":10064,"itemid":10065,"20230":10066,"Ai":10067,"fb":10068,"getAdapter":10069,"normal":10070,"variation":10071,"pd":10072,"Kee":10073,"artist":10074,"fails":10075,"Given":10076,"ĠHeader":10077,"ĠCountable":10078,"isk":10079,"Ġ.=<":10080,"EntityId":10081,"ĠBoot":10082,"earch":10083,"Representation":10084,"Ġgroup":10085,"mailbox":10086,"Toolkit":10087,"IGN":10088,"distinct":10089,"Fq":10090,"Inner":10091,"ĠMath":10092,"ĠEnvironment":10093,"httpResponse":10094,"macro":10095,"ĠPoint":10096,"isAllowed":10097,"eleton":10098,"tn":10099,"Worksheet":10100,"Employee":10101,"pow":10102,"ĠTech":10103,"DELI":10104,"uel":10105,"RegExp":10106,"park":10107,"joins":10108,"Tagged":10109,"IA":10110,"FromFile":10111,"'>,$":10112,"20220":10113,"ĠSend":10114,"Ġdrop":10115,"identifiers":10116,"CONTRO":10117,"haviour":10118,"timate":10119,"RequestOptions":10120,"FULL":10121,"CollectionFactory":10122,"Maps":10123,"StateMachine":10124,"Ġ]<":10125,"pageId":10126,"ĠgetSub":10127,"ators":10128,"Angle":10129,"xmlSerialize":10130,"ello":10131,"phar":10132,"Connections":10133,"world":10134,"mmerce":10135,"getCustomer":10136,"tok":10137,"refreshToken":10138,"Broker":10139,"RS":10140,"ĠAnt":10141,"pends":10142,"goti":10143,"expired":10144,"ĠUSER":10145,"portal":10146,"langs":10147,"expressions":10148,"APPLICATION":10149,"ĠDot":10150,"Signer":10151,"Lifetime":10152,"==$":10153,"Walker":10154,"Ġrestore":10155,"PropertyValue":10156,"reement":10157,"keeko":10158,"monitor":10159,"localVar":10160,"Ġrawurlencode":10161,"tail":10162,"taxonomies":10163,"MT":10164,"Attempts":10165,"SIGN":10166,"Initial":10167,"ABASE":10168,"Receipt":10169,"ĠCOM":10170,"Must":10171,"inser":10172,"Bindings":10173,">])?$":10174,"ĠRequestParamsHeaderDescriptor":10175,">+$":10176,"CustomField":10177,"VM":10178,"alty":10179,"micro":10180,"rame":10181,">).$":10182,"ĠLi":10183,"ĠMag":10184,"SPI":10185,"makeInstance":10186,"28":10187,"percentage":10188,"getPlugin":10189,"aser":10190,"ĠManager":10191,"cross":10192,"modal":10193,">?><?":10194,"pense":10195,"proj":10196,"ĠsetMax":10197,"Ġfinally":10198,"getColumns":10199,"Naming":10200,"Identifiers":10201,"poration":10202,"indexName":10203,"ĠProfile":10204,"aj":10205,"errorMsg":10206,"Contexts":10207,"Inspe":10208,"compressed":10209,"Expires":10210,"plicit":10211,"ICON":10212,"extras":10213,"ExpectedException":10214,"getDriver":10215,"ĠgetTarget":10216,"requires":10217,"ĠAdapter":10218,"ĠYaml":10219,"dbname":10220,"RefreshToken":10221,"Concept":10222,"Authority":10223,"LOGIN":10224,"categoryId":10225,"aa":10226,"persistent":10227,"structions":10228,"includes":10229,"fid":10230,"ĠgetService":10231,"Asc":10232,"VID":10233,"ective":10234,"(?<":10235,"SCRIPT":10236,"Radius":10237,"SearchCriteria":10238,"gres":10239,"ArrayIterator":10240,"DEFINED":10241,"FRO":10242,"goto":10243,"Emails":10244,"which":10245,"META":10246,"ĠBASE":10247,"utor":10248,"erio":10249,"compilation":10250,"Sensitive":10251,"localVarParams":10252,"kill":10253,"Months":10254,"attendee":10255,"amsey":10256,"Ġhexdec":10257,"Accepted":10258,"Os":10259,"ĠgetOrder":10260,"resultSet":10261,"Crypt":10262,"ĠVo":10263,"xp":10264,"formula":10265,"createForm":10266,"online":10267,"errorInfo":10268,"made":10269,"getEntityManager":10270,"cto":10271,"Transfers":10272,"lossary":10273,"Schemas":10274,"getTranslation":10275,"rain":10276,"Matched":10277,"DATETIME":10278,"IsNot":10279,"StructType":10280,"MySQL":10281,"Resolved":10282,"ĠCountry":10283,"ĠEVENT":10284,"reports":10285,"[]=$":10286,"Breadcrumb":10287,"STATIC":10288,"olar":10289,"Conditional":10290,"Minimum":10291,"cells":10292,"SUPP":10293,"outcome":10294,"agers":10295,"ighbor":10296,"BAN":10297,"ĠWh":10298,"RpcAcsRequest":10299,"Ġback":10300,"blue":10301,"Capacity":10302,"RANSA":10303,"accepted":10304,"CodeGenerator":10305,"Ġpush":10306,"setMessage":10307,"tech":10308,"semStack":10309,"zim":10310,"anding":10311,"routeName":10312,"ĠWiki":10313,"lon":10314,"SEC":10315,"moz":10316,"ClassMethod":10317,"ĠOData":10318,"Street":10319,"varValue":10320,"expectedResponse":10321,"reach":10322,"UTH":10323,"isse":10324,"stamp":10325,"ĠAjax":10326,"fullName":10327,"509":10328,"Administrator":10329,"Steps":10330,"SalesOrder":10331,"CREATED":10332,"setCode":10333,"ullables":10334,"APINullables":10335,"Generation":10336,"AccessControl":10337,"ĠInstall":10338,"getSubject":10339,"until":10340,"messageId":10341,"restri":10342,"myvalues":10343,"Slash":10344,"getHeight":10345,"Slump":10346,"eof":10347,"oney":10348,"BigInteger":10349,"totals":10350,"ĠAD":10351,"ny":10352,"integration":10353,"Profiles":10354,">.__":10355,"QueryInterface":10356,"CODING":10357,"ĠCriterion":10358,"().":10359,"contributor":10360,"Typo":10361,")):":10362,"usr":10363,"Ġimagecolor":10364,"ĠSensio":10365,"SplFileInfo":10366,"Ġkeeko":10367,"ĠPredis":10368,"Unserialize":10369,"coverage":10370,"STRI":10371,"LECTION":10372,"Completion":10373,"subtype":10374,"Statuses":10375,"setKey":10376,"received":10377,"ĠgetToken":10378,"startIndex":10379,"Morph":10380,"Mill":10381,"ĠNormalizer":10382,"RETURN":10383,"ProcessorInterface":10384,"sg":10385,"Bracket":10386,"setRequired":10387,"uesser":10388,"positions":10389,"shaller":10390,"FAILURE":10391,"NA":10392,"compu":10393,"reserved":10394,"Executable":10395,"nodeId":10396,"Wechat":10397,"bln":10398,"rr":10399,"digital":10400,"Distance":10401,"Addon":10402,"DITION":10403,"Iso":10404,"asrt":10405,"ulture":10406,"sso":10407,"SPLIT":10408,"areer":10409,"producer":10410,"Scanner":10411,"Ġfl":10412,"assertInternalType":10413,"LIGHT":10414,"getOne":10415,"ĠDebug":10416,"PrivateKey":10417,"cats":10418,"Working":10419,"WID":10420,"Sem":10421,"ĠBasic":10422,"NDER":10423,"Persist":10424,"watermark":10425,"Survey":10426,"Ġaddslashes":10427,"cacheDir":10428,"startsWith":10429,"esModels":10430,"Ġdisable":10431,"asort":10432,"ĠIO":10433,"relationships":10434,"atomic":10435,"ĠCODE":10436,"papaya":10437,"newline":10438,"IND":10439,"ATURE":10440,"RANSACTION":10441,"Ġlu":10442,"ĠGame":10443,"kul":10444,"ĠDec":10445,"anges":10446,"logic":10447,"Caller":10448,"preset":10449,"MER":10450,"OW":10451,"secu":10452,"ugroup":10453,"Dlp":10454,"ĠattributeLabels":10455,"ameleonSystem":10456,"Javascript":10457,"sTable":10458,"subscriptions":10459,"timeZone":10460,"suggestion":10461,"ĠCor":10462,"express":10463,"Reserved":10464,"ĠtableName":10465,"ancy":10466,"Filtered":10467,"ĠgetAttribute":10468,"Consts":10469,"Linked":10470,"ĠKernel":10471,"ACL":10472,"assertFile":10473,"selectors":10474,"HASH":10475,"TYPO":10476,"Precision":10477,"ĠGe":10478,"ĠgetProduct":10479,"irst":10480,"photos":10481,"docblock":10482,"parameterName":10483,"ReadOnly":10484,"Ġnow":10485,"average":10486,"[$_":10487,"Gallery":10488,"loan":10489,"future":10490,"getConfiguration":10491,"song":10492,"HER":10493,"SINGLE":10494,"ĠTools":10495,"EmailAddress":10496,"Bill":10497,"ĠsetTitle":10498,"DrSlump":10499,"findNext":10500,"Ġrewind":10501,"Ġbin":10502,"Sim":10503,"allel":10504,"wheres":10505,"RANGE":10506,"topics":10507,"psr":10508,"CANCE":10509,"InputFilter":10510,"Temporary":10511,"LanguageCode":10512,"accessor":10513,"VED":10514,"allowedValues":10515,"receive":10516,"Ġservice":10517,"contex":10518,"ableTrait":10519,"raf":10520,"ACK":10521,"holiday":10522,"peek":10523,"versionInfo":10524,"localize":10525,"preserve":10526,"Approval":10527,"Ġurldecode":10528,"ENDPOINT":10529,"gc":10530,"groupName":10531,"encent":10532,"PERMISSION":10533,"aiting":10534,"PF":10535,"objectId":10536,"BelongsTo":10537,"adjust":10538,"codi":10539,"ByKey":10540,"Ġcmsgears":10541,"bler":10542,"EventSubscriberInterface":10543,"ĠRecord":10544,"plaintext":10545,"ĠTax":10546,"Flysystem":10547,"implement":10548,"Serialized":10549,"embedded":10550,"guzzle":10551,"ĠPi":10552,"totalCount":10553,"ĠImport":10554,"getAuth":10555,"LastName":10556,"isto":10557,"fullname":10558,"ĠOpenOrchestra":10559,"prog":10560,"Ra":10561,"ĠFlow":10562,"handleRequest":10563,"Mailbox":10564,"cssPhp":10565,"hasColumn":10566,"aux":10567,"PHPStan":10568,"modifiers":10569,"ĠRamsey":10570,"ReflectionProperty":10571,"Setter":10572,"irby":10573,"VERY":10574,"Tele":10575,"Ġyield":10576,"xx":10577,"shouldThrow":10578,"Counts":10579,"ĠPhan":10580,"CUMENT":10581,"MEDIUM":10582,"ora":10583,"apse":10584,"Artist":10585,"SerializerInterface":10586,"ancial":10587,"andir":10588,"Twitter":10589,"MessageInterface":10590,"Ġdispatch":10591,"shuff":10592,"newValue":10593,"IGNORE":10594,"firstname":10595,"));":10596,"Devices":10597,"setExpectedException":10598,"ĠVideo":10599,"AsyncWithHttpInfo":10600,"WD":10601,"elm":10602,"sortable":10603,"avg":10604,"OID":10605,"Ġsub":10606,"ĠLoggerInterface":10607,"enus":10608,"SSING":10609,"AGENT":10610,"Indicator":10611,"ĠgetTable":10612,"MODEL":10613,"ĠsetCode":10614,"Modification":10615,"PROTO":10616,"ĠPho":10617,"userID":10618,"secutive":10619,"who":10620,"criminator":10621,"endi":10622,"Ġoptional":10623,"Checks":10624,"iri":10625,"there":10626,"Instanti":10627,"Modal":10628,"Requirement":10629,"passed":10630,"Ġfirst":10631,"ĠLOCK":10632,"Embedded":10633,"VERIFYPEER":10634,"menti":10635,">]]<":10636,"ĠInflector":10637,">?<":10638,"customers":10639,"'>.$":10640,"getLevel":10641,"pricing":10642,"Spot":10643,"sis":10644,"WireType":10645,"violations":10646,"Ġfinal":10647,"atLeastOnce":10648,"Ġexec":10649,"Taxonomy":10650,"yystack":10651,"election":10652,"Rights":10653,"dp":10654,"Ġrange":10655,"cot":10656,"Gap":10657,"trailing":10658,"GroupName":10659,"TranslatorInterface":10660,"Sorting":10661,"tu":10662,"isArray":10663,"ValidatorInterface":10664,"Qr":10665,"getX":10666,"expan":10667,"ContentId":10668,"Pokemon":10669,"ĠSerializer":10670,"addir":10671,"Cells":10672,"whitelist":10673,"PCL":10674,"getLocation":10675,"copyright":10676,"fare":10677,"Latest":10678,"Cand":10679,"sorting":10680,"45":10681,"compression":10682,"fullPath":10683,"Cent":10684,"ĠMissing":10685,"}($":10686,"ĠCookie":10687,"ĠSO":10688,"fonts":10689,"detach":10690,"ĠCompany":10691,"getHash":10692,"ListResponse":10693,"COMPLETE":10694,"fficient":10695,"Poly":10696,"Protection":10697,"ĠWord":10698,"Ġescape":10699,"Tx":10700,">}));<":10701,"FROM":10702,"FuncCall":10703,"PCLZIP":10704,"sil":10705,"Activation":10706,"ĠCr":10707,"--$":10708,"Dc":10709,"OData":10710,"ResponseCode":10711,"Lifecycle":10712,"setCellValue":10713,"Disable":10714,"uple":10715,"ĠMO":10716,"Ġinstall":10717,"grades":10718,"datum":10719,"Shadow":10720,"Ġcontains":10721,"Deletion":10722,"Ġ=>$":10723,"scene":10724,"Wrapped":10725,"aspect":10726,"lan":10727,"ĠCNabu":10728,"ĠQu":10729,"(<<<":10730,"Primitive":10731,"MBER":10732,">)?><?=":10733,"clauses":10734,"acer":10735,"Managed":10736,"formParamName":10737,"REMOVE":10738,"DateInterval":10739,"ĠSlim":10740,"king":10741,"Problem":10742,"dirroot":10743,"Prompt":10744,"Subscriptions":10745,"analyze":10746,"strTable":10747,"THEME":10748,"analysis":10749,"getStyle":10750,"Effect":10751,"fseek":10752,"stalk":10753,"verb":10754,"fast":10755,"DSx":10756,"secondary":10757,"intent":10758,"ĠCred":10759,"ApiBundle":10760,"Operators":10761,"Logout":10762,"Authorized":10763,"ĠProxy":10764,">;}":10765,"lim":10766,"expectation":10767,"cash":10768,"Ġtranslate":10769,"IR":10770,"setConfig":10771,"typ":10772,"ODY":10773,"ĠDOMElement":10774,"HY":10775,"dget":10776,"Interaction":10777,"ĠgetFacade":10778,"Scenario":10779,"LETTER":10780,"26":10781,"about":10782,"FullName":10783,"limits":10784,"ProjectId":10785,"heritance":10786,"Decor":10787,"PENDING":10788,"Air":10789,"createIndex":10790,"ImplementedException":10791,"reload":10792,"genre":10793,"performValidation":10794,"ĠCard":10795,"SupportedException":10796,"Excluded":10797,"ĠICON":10798,"29":10799,"readOneof":10800,"writeOneof":10801,"ĠReflectionMethod":10802,"ĠFalse":10803,"getFHIR":10804,"Ġglob":10805,"qa":10806,"roke":10807,"plot":10808,"Interceptor":10809,"UserID":10810,"sessionobject":10811,"kommerce":10812,"SECONDS":10813,"kin":10814,"Ġretrieve":10815,"ĠtestShould":10816,"vidence":10817,"Ġinkl":10818,"Ġinklabs":10819,"hasPermission":10820,"Extent":10821,"Positions":10822,"Ġresult":10823,"ISO":10824,"DT":10825,"tweet":10826,"ĠPlayer":10827,"getRole":10828,"ĠInteger":10829,"shouldNot":10830,"issuer":10831,"hasAttribute":10832,"FACE":10833,"BoundingBox":10834,"Builders":10835,"sights":10836,"JOIN":10837,"hesk":10838,"configur":10839,"Notifier":10840,"Verb":10841,"responseFactory":10842,"Logo":10843,"mind":10844,"SERT":10845,"cep":10846,"ToNull":10847,"health":10848,"dataSet":10849,"FormInterface":10850,"getAddress":10851,"resse":10852,"some":10853,"Exclude":10854,"assertJson":10855,"Calc":10856,"toc":10857,"VARIABLE":10858,"Fn":10859,"stderr":10860,"YEAR":10861,"elo":10862,"ĠgetG":10863,"Expectation":10864,"Ep":10865,"isDir":10866,"getPrice":10867,"ĠTranslator":10868,"MARY":10869,"WR":10870,"Capability":10871,"Ġdownload":10872,"ileges":10873,"DefinitionInterface":10874,"receipt":10875,"INTERNAL":10876,"tw":10877,"ApiRequest":10878,"aco":10879,"availability":10880,"Slim":10881,"Mutator":10882,"nickname":10883,"OFFSET":10884,"ometh":10885,"AppBundle":10886,"ĠRegister":10887,"defs":10888,"ĠUnion":10889,"SKIP":10890,"Torrent":10891,"getTime":10892,"KeyValue":10893,"pathInfo":10894,"cpu":10895,"Verifier":10896,"MPLE":10897,"getPassword":10898,"vol":10899,"wx":10900,"ĠValidationException":10901,"Ġgmdate":10902,"prof":10903,"material":10904,"ĠEntry":10905,"ĠgetR":10906,"displayobject":10907,"FOLDER":10908,"getH":10909,"Ent":10910,"ysical":10911,"ĠsetParent":10912,"ĠCzim":10913,"atives":10914,"Quota":10915,"getUn":10916,"meet":10917,"getActiveSheet":10918,"ĠTheme":10919,"wik":10920,"Ġtable":10921,"flight":10922,"Repl":10923,"Planet":10924,"ĠLOG":10925,"ĠgetObject":10926,"ToOne":10927,"throwException":10928,"SSH":10929,"><<<'":10930,"actsWith":10931,"varName":10932,"caps":10933,"png":10934,"Swap":10935,"localized":10936,"ĠCms":10937,"GN":10938,"setPath":10939,"Expressions":10940,"ĠFORMAT":10941,"desired":10942,"ĠgetH":10943,"TAB":10944,"Cols":10945,"DATABASE":10946,"Fault":10947,"ĠgetModel":10948,"affold":10949,"Meet":10950,"Ġfield":10951,"ĠMe":10952,"ĠBundle":10953,"Md":10954,"ElementInterface":10955,"Tickets":10956,"TypeNode":10957,"roleId":10958,"GPC":10959,"LING":10960,"prote":10961,"ĠDC":10962,"mention":10963,"executable":10964,"Negative":10965,"CONTAIN":10966,"ĠgetEntity":10967,"Anonymous":10968,"RFC":10969,"tile":10970,"ĠsetS":10971,"ĠInst":10972,"});<":10973,"avor":10974,"rootNode":10975,"aggregation":10976,">]:":10977,"setStatusCode":10978,"gapi":10979,"ParameterException":10980,"throws":10981,"Statistic":10982,"LocationId":10983,"ĠCallback":10984,"searchModel":10985,"design":10986,"Assigned":10987,"omething":10988,"rtrim":10989,"delegate":10990,"ParserInterface":10991,"ĠAbstractMigration":10992,"purge":10993,"Dns":10994,"MARK":10995,"getLink":10996,"ĠSoft":10997,"leave":10998,"Rdf":10999,"posed":11000,"OTL":11001,"PARENTHE":11002,"FIER":11003,"Ġrocket":11004,"diction":11005,"ĠcreateFrom":11006,"highlight":11007,"CollectionInterface":11008,"Ġtemp":11009,"tar":11010,"initializable":11011,"Atomic":11012,"Alliance":11013,"BinaryOp":11014,"mozart":11015,"isGranted":11016,"ctrl":11017,"personal":11018,"OVER":11019,"attributeValue":11020,"().$":11021,"ListItem":11022,"prefixes":11023,"Restore":11024,"termin":11025,"isSet":11026,"ĠgetCache":11027,"baseDir":11028,"Shift":11029,"allows":11030,")==<":11031,"lastname":11032,"THROW":11033,"ERRMODE":11034,"TextType":11035,"exif":11036,"Ġeme":11037,"BOX":11038,"ĠINVALID":11039,"AbstractMigration":11040,"LoaderInterface":11041,"ĠRegistry":11042,"listed":11043,"pets":11044,"ĠgetState":11045,"ĠCA":11046,"keyName":11047,">._":11048,"Power":11049,"orde":11050,"oForm":11051,"Journal":11052,"Creative":11053,"BadMethodCallException":11054,"ĠCap":11055,"OrEqual":11056,"Detection":11057,"alph":11058,"bloginfo":11059,"isAjax":11060,"Ġlet":11061,"education":11062,"ĠLoc":11063,"ĠUTF":11064,"setQuery":11065,"ĠDep":11066,"Withdraw":11067,"Ġaccept":11068,"addForeignKey":11069,"strval":11070,"menuItem":11071,"green":11072,"ĠTechDivision":11073,"LC":11074,"ised":11075,"Severity":11076,"EB":11077,"odb":11078,"ResetPassword":11079,"verification":11080,"Dates":11081,"iversal":11082,"Solr":11083,"ĠLazy":11084,"dropTable":11085,"ena":11086,"submitted":11087,"Servers":11088,"guarded":11089,"requestBody":11090,"__));<":11091,"Associative":11092,"cident":11093,"Includes":11094,"urlGenerator":11095,"Ġfilemtime":11096,"Conflict":11097,"Ġexp":11098,"getSearch":11099,"Preset":11100,"orient":11101,"ĠBolt":11102,"resourceId":11103,"Assignments":11104,"mr":11105,"pref":11106,"comparator":11107,"good":11108,"decoder":11109,"DataGrid":11110,"ResourceModel":11111,"BODY":11112,"()]))":11113,"ĠgetBy":11114,"ĠNotFoundHttpException":11115,"ĠOmnipay":11116,"ĠUsers":11117,"ACTI":11118,"got":11119,"Firewall":11120,"pairs":11121,"needs":11122,"ĠgetItem":11123,"issues":11124,")$_":11125,"PART":11126,"frontend":11127,"Station":11128,"FormType":11129,"icons":11130,"referenced":11131,"rem":11132,"rotate":11133,"Ġap":11134,"exitCode":11135,"RATE":11136,"SIMPLE":11137,"offsetGet":11138,"Swagger":11139,"OO":11140,"oUser":11141,"]=$":11142,"concat":11143,"strument":11144,"ĠDateInterval":11145,"Sibling":11146,"STRT":11147,"digest":11148,"rax":11149,"adic":11150,"ĠLdap":11151,"codebase":11152,"locationId":11153,"subtitle":11154,"DENT":11155,"tolog":11156,"ĠStatic":11157,"asserter":11158,"igento":11159,"RequestBuilder":11160,"raxigento":11161,"getArguments":11162,"Saniti":11163,"Lead":11164,"gramm":11165,"OpenApi":11166,"ĠTEXT":11167,"OSS":11168,"ZER":11169,"AttributeValue":11170,"fsStream":11171,"getPrevious":11172,"NotAllowed":11173,"Ġdump":11174,"Interpret":11175,"ĠIMAGE":11176,"Prepare":11177,"amb":11178,"CreditCard":11179,"ĠFeed":11180,"STORE":11181,"negative":11182,"anno":11183,"templateName":11184,"madeus":11185,"Webdav":11186,"Ġfoo":11187,"setBase":11188,"Consecutive":11189,"openssl":11190,"ContentObject":11191,"Anime":11192,"ĠNails":11193,"Light":11194,"capabilities":11195,"Ġpods":11196,"Restrictions":11197,"ĠCurl":11198,"FontSize":11199,"ended":11200,"identical":11201,"ENABLED":11202,"Receiver":11203,"editable":11204,"Better":11205,"Ġ+<":11206,"BusinessUnit":11207,"Dn":11208,"RequestId":11209,"Ġsys":11210,"CURRENCY":11211,"vin":11212,"setCurrent":11213,"MONTH":11214,"ĠInstance":11215,"POSITION":11216,"GRA":11217,"TRI":11218,"heets":11219,"ĠDen":11220,"GetResponse":11221,"queueName":11222,"Processors":11223,"Coroutine":11224,"Even":11225,"ĠScope":11226,"Measurement":11227,"ĠgetBody":11228,"80":11229,"slide":11230,"Ġdel":11231,"contentService":11232,">]?><?":11233,"ĠgetLabel":11234,"ĠSY":11235,"SHIP":11236,"CAPTURE":11237,"CommonMark":11238,"WebSocket":11239,"zones":11240,"LLER":11241,"lineno":11242,"IsValid":11243,"Intl":11244,"repositories":11245,"Reporting":11246,"Ġequ":11247,"ĠAss":11248,"UserBundle":11249,"serverIo":11250,"concrete":11251,"arbone":11252,"ĠActivity":11253,"HttpClientOption":11254,"PUBLISH":11255,"PACK":11256,"finished":11257,"FilterInterface":11258,"Buyer":11259,"ĠWidget":11260,"yes":11261,"ĠFreeDSx":11262,"CommandInterface":11263,"getCell":11264,"ĠCOL":11265,"getValidationErrors":11266,"ShippingMethod":11267,"ĠDirectory":11268,"getAmount":11269,"Globals":11270,"Ini":11271,"Caching":11272,"ĠgetFacadeAccessor":11273,"globals":11274,"GH":11275,"oModule":11276,"deal":11277,"Demo":11278,"ĠBootstrap":11279,"poch":11280,"refs":11281,"getApp":11282,"Deprecation":11283,"Tabs":11284,"interpret":11285,"setState":11286,"Ful":11287,"isFile":11288,"setText":11289,"forget":11290,"ATOM":11291,"mlink":11292,"ĠAppserverIo":11293,"ĠgetBlock":11294,"ports":11295,"ĠIteratorAggregate":11296,"BoundsException":11297,"Ġextension":11298,"ĠLight":11299,"boo":11300,"numero":11301,"Ġsin":11302,"groupid":11303,"ĠEventDispatcher":11304,"paging":11305,"STAMP":11306,"requestUri":11307,"authority":11308,"ĠCat":11309,"createQuery":11310,"Transformers":11311,"INCLUDE":11312,"STER":11313,"Conn":11314,"NodeName":11315,"ĠBaseModel":11316,"ENCODING":11317,"coordinates":11318,"Fleet":11319,"Sha":11320,"Ġcontent":11321,"Nu":11322,"getCurrency":11323,"workshop":11324,"ĠDateTimeInterface":11325,"wise":11326,"setcookie":11327,"years":11328,"quotes":11329,"gmp":11330,"MAL":11331,"NCE":11332,"ĠHelpers":11333,"ĠSimpleSAML":11334,"ĠDat":11335,"abbit":11336,"offsetExists":11337,"Persister":11338,"pter":11339,"initializer":11340,"Camel":11341,"sQuery":11342,"Been":11343,"55":11344,"ĠsetNext":11345,"Distribution":11346,"pointment":11347,"Wasp":11348,"Rev":11349,"trip":11350,">[]<":11351,"ĠElcodi":11352,"promo":11353,"ĠUN":11354,"ĠgetAction":11355,"Imagick":11356,"ĠLabel":11357,"ĠLocal":11358,"DISPLAY":11359,"yb":11360,"Ġtext":11361,"getHttp":11362,"ĠNOT":11363,"Dropdown":11364,"ĠMongoDB":11365,"DataTable":11366,"markTestSkipped":11367,"lec":11368,"AbstractModel":11369,"ĠImi":11370,"OTHER":11371,"Ġutf":11372,"associated":11373,"ensus":11374,"Partition":11375,"withStatus":11376,"Frequency":11377,"Jwt":11378,"traverse":11379,"Bitcoin":11380,"ĠBox":11381,"friendly":11382,"uris":11383,"GridField":11384,"ĠCommune":11385,"deprecation":11386,"getRelation":11387,"setLocale":11388,"ĠDCarbone":11389,"Attri":11390,"shuffle":11391,"ltrim":11392,"ĠMW":11393,"xo":11394,"DOCUMENT":11395,"ĠEventSubscriberInterface":11396,"spi":11397,"LINFO":11398,"imagick":11399,"ĠRi":11400,"ĠTokens":11401,"ĠPS":11402,"Mil":11403,"Wizard":11404,"]]);<":11405,"sol":11406,"ArrayType":11407,"SETTINGS":11408,"Finished":11409,"Middle":11410,"Unsupported":11411,"JsonSchema":11412,"RF":11413,"urs":11414,"ValueNode":11415,"Ġii":11416,"rack":11417,"BaseController":11418,"Evaluation":11419,"Serial":11420,"what":11421,"postdata":11422,"ĠSubscription":11423,"ĠOperator":11424,"ArrayOf":11425,"Ġlink":11426,"ResourceInterface":11427,"APPEND":11428,"realm":11429,"MEDIA":11430,"userModel":11431,"rencies":11432,"teacher":11433,"UpdateTime":11434,"rsvp":11435,"Predicate":11436,"relativePath":11437,"Ġbind":11438,"Ġmessage":11439,"ShouldBe":11440,"broker":11441,"SLASH":11442,"ĠsetC":11443,"Compile":11444,"TransactionId":11445,"LABLE":11446,"gm":11447,"getLocal":11448,"Compression":11449,"cleanup":11450,"Each":11451,"fileId":11452,"Rob":11453,"PRIORITY":11454,"Differ":11455,"broadcast":11456,"EventSubscriber":11457,"getDatabasePlatform":11458,"NON":11459,"vest":11460,"grouped":11461,"slots":11462,"ĠProtocol":11463,"ĠSTATE":11464,"dateFormat":11465,"KED":11466,"vertiser":11467,"ipAddress":11468,"ortable":11469,"always":11470,"assessmenti":11471,"Ġmain":11472,">]))->":11473,"Rename":11474,"RPC":11475,"))));<":11476,"eeded":11477,"Azure":11478,"bx":11479,"Ġ!\\":11480,"Limits":11481,"lout":11482,"RELATION":11483,"ĠBatch":11484,"Presence":11485,"MISSING":11486,"ntl":11487,"Mean":11488,"fresh":11489,"getCount":11490,"ĠAmadeus":11491,"Ġinfo":11492,"ĠTrack":11493,"SMALL":11494,"Ġequals":11495,"gol":11496,"ĠHttpException":11497,"Ġattach":11498,"getHelper":11499,"chk":11500,"Recur":11501,"FormRequest":11502,"bbox":11503,"arrayNode":11504,"Rates":11505,"ias":11506,"cleus":11507,"Ġproperty":11508,"lee":11509,"profiler":11510,"INSERT":11511,"Ġabsint":11512,"getRealPath":11513,"fput":11514,"Ġtoken":11515,"Maintenance":11516,"ĠFlag":11517,"Travel":11518,"ieve":11519,"Lit":11520,"StringType":11521,"Alt":11522,"Personal":11523,"referrer":11524,"xfer":11525,"cee":11526,"gies":11527,"ates":11528,"elle":11529,"ĠgetText":11530,"MYSQL":11531,"ĠChameleonSystem":11532,"ĠDataObject":11533,"serviceManager":11534,"Ġgmp":11535,"Lti":11536,"trades":11537,"UpdateStruct":11538,"Audience":11539,"ĠPrice":11540,"ĠBar":11541,"decimals":11542,"reflect":11543,"award":11544,"secretKey":11545,"Ġfgets":11546,"exc":11547,"ĠgetEmail":11548,"addHeader":11549,"syntax":11550,"Grade":11551,"funding":11552,"ĠDynamic":11553,"vertex":11554,"Migrate":11555,"human":11556,"cher":11557,"xmlArr":11558,"ano":11559,"stripe":11560,"fieldId":11561,"Candy":11562,"isRequired":11563,"Encrypted":11564,"Inspector":11565,"laravel":11566,"ipv":11567,"Asn":11568,"SUPPORTED":11569,"ĠDummy":11570,"Attack":11571,"texto":11572,"Reverse":11573,"ĠprivatePost":11574,"Needed":11575,"dial":11576,"abre":11577,"transactionId":11578,"ĠBitWasp":11579,"Codec":11580,"ABS":11581,"Average":11582,"PluginInterface":11583,"ĠPri":11584,"sName":11585,"sim":11586,"SMS":11587,"ownerDocument":11588,"Stored":11589,"hance":11590,"operators":11591,"ĠKEY":11592,"getPayment":11593,"velop":11594,"cedure":11595,"advance":11596,"extractor":11597,"Phabricator":11598,"securityToken":11599,"executor":11600,"ĠFormatter":11601,"Typed":11602,"assertStatus":11603,"ĠFOS":11604,"RedirectResponse":11605,"collectionName":11606,"Variants":11607,"Daemon":11608,"CAT":11609,"ĠChild":11610,"Canonical":11611,"getEnd":11612,"textContent":11613,"hr":11614,"vg":11615,"ĠUNKNOWN":11616,"ĠScript":11617,"colour":11618,"extracted":11619,"Road":11620,"fraction":11621,"CData":11622,"ManagerRegistry":11623,"expectedResult":11624,"compilationContext":11625,"getMethods":11626,"AggregateId":11627,"recent":11628,"tickets":11629,"Dash":11630,"tico":11631,"]),":11632,"Catalogue":11633,"DER":11634,"sell":11635,"Applic":11636,"ĠgetN":11637,"--)":11638,"prior":11639,"incoming":11640,"Prod":11641,"imported":11642,"ĠSwag":11643,"Supplier":11644,"getPrefix":11645,"Digits":11646,"ascii":11647,"37":11648,"ĠPattern":11649,"adoc":11650,"power":11651,"201":11652,"large":11653,"Mat":11654,"sus":11655,"createHttpClientOption":11656,"conv":11657,"prox":11658,"Paragraph":11659,"Stand":11660,"ĠisEmpty":11661,"getServiceManager":11662,"fetchColumn":11663,"Mixed":11664,"Padding":11665,"aringClass":11666,"ĠAntares":11667,"ĠJet":11668,"Ranges":11669,"FrameworkExtraBundle":11670,"VERBOSE":11671,"mag":11672,"deg":11673,"episode":11674,"woo":11675,"people":11676,"authenticated":11677,"CRIT":11678,"DSL":11679,"OSCOM":11680,"Oid":11681,"pn":11682,"Ġac":11683,"isEx":11684,"invite":11685,"FileSize":11686,"34":11687,"CHO":11688,"Assem":11689,"nowledge":11690,"inx":11691,"__))":11692,"ObjectId":11693,"oll":11694,"recurring":11695,"bookmark":11696,"ĠTodoyu":11697,"FormField":11698,"ĠWebmozart":11699,"ĠSetting":11700,"IDEO":11701,"Catch":11702,"recordData":11703,"rategies":11704,"middlewares":11705,"SES":11706,"PROXY":11707,"ACCE":11708,"Jar":11709,"QP":11710,"kel":11711,">))));<":11712,"SetToNull":11713,"guess":11714,"representation":11715,"stable":11716,"ToPhp":11717,"indices":11718,"World":11719,"RUN":11720,"Letter":11721,"getValid":11722,"AIPlatform":11723,"RelativePath":11724,"loyees":11725,"getHtml":11726,"Ġcancel":11727,"ĠTransform":11728,"ushort":11729,"variants":11730,"classReflection":11731,"Attendee":11732,"ĠTri":11733,"UriInterface":11734,"Ġpassword":11735,"ĠsetB":11736,"docComment":11737,"blocksPlatform":11738,"IFICATION":11739,"boxes":11740,"CSV":11741,"medium":11742,"mation":11743,"orth":11744,"Paras":11745,"Forbidden":11746,"chdir":11747,"toggle":11748,"offsetSet":11749,"feof":11750,"ĠNetwork":11751,"Compatibility":11752,"dy":11753,"Ġimages":11754,"Coordinates":11755,"rat":11756,"postId":11757,"ClientId":11758,">?><?<":11759,"PSG":11760,"arFields":11761,"NonEmpty":11762,"Sizes":11763,"ĠgetItems":11764,"Ġ(!(":11765,"ĠEc":11766,"ADATA":11767,"ceeded":11768,"ractal":11769,"writeError":11770,">]++;<":11771,"StateException":11772,"targetPath":11773,"errorHandler":11774,"Ssl":11775,"ĠAggreg":11776,"ĠGed":11777,"entid":11778,"Ġbc":11779,"Stubs":11780,"Addr":11781,"Firebase":11782,"createObject":11783,"ĠIv":11784,"ĠLess":11785,"nama":11786,"ĠViserio":11787,"Caption":11788,"ILD":11789,"pValue":11790,"seen":11791,"Modifiers":11792,"patient":11793,"Ġdescription":11794,"speed":11795,"Cp":11796,"versal":11797,"ĠTencent":11798,"Alice":11799,"Ready":11800,"AJ":11801,"RM":11802,"resume":11803,"assertWireType":11804,"ĠXMLDB":11805,"GroupBy":11806,"slider":11807,"Artisan":11808,"Rect":11809,"pathname":11810,"ĠKe":11811,"mirror":11812,"rases":11813,"fili":11814,"qry":11815,"NodeVisitor":11816,"ĠTelegram":11817,"Assistant":11818,"Reminder":11819,"UserRepository":11820,"interaction":11821,"WeChat":11822,"ĠSimp":11823,"ĠExceptionInterface":11824,"Cipher":11825,"Livewire":11826,"QUA":11827,"ticky":11828,"ĠInterop":11829,"ĠFunctions":11830,"PhpDocParser":11831,"frequency":11832,"icit":11833,"asis":11834,"tology":11835,"86":11836,"reviews":11837,"ĠisSet":11838,"langcode":11839,"ticipants":11840,"air":11841,"nextToken":11842,"Else":11843,"calculated":11844,"ĠROOT":11845,"Ġfill":11846,"compose":11847,"Picker":11848,"ĠSuper":11849,"typeId":11850,"prices":11851,"Ġ():":11852,"Trashed":11853,"temref":11854,"safeResult":11855,"Subscribe":11856,"Barcode":11857,"extendedassessmenti":11858,"extendedassessmentitemref":11859,"cases":11860,"Ġpage":11861,"isSuccessful":11862,"province":11863,"FromRequest":11864,"Generators":11865,"enthesis":11866,"Ġmod":11867,"setUrl":11868,"LESS":11869,"Ġpath":11870,"85":11871,"errorResponse":11872,"reflectionMethod":11873,"Paging":11874,"setTime":11875,"Ġ((<":11876,"Sour":11877,"ĠPhlexible":11878,"Papaya":11879,"memo":11880,"Contentwarehouse":11881,"Ttl":11882,"problem":11883,"party":11884,"usleep":11885,"Uni":11886,"searchable":11887,"SingleValue":11888,"ILY":11889,"ThrowsException":11890,"Ġ(@":11891,"getPlayer":11892,"difference":11893,"FormData":11894,"quota":11895,"ĠAv":11896,"Verified":11897,"languageId":11898,"PriceProduct":11899,"RetailCrm":11900,"spreadsheet":11901,"fileContent":11902,"rootDir":11903,"getFullName":11904,"Ġreduce":11905,"READY":11906,"ISTR":11907,"Parsers":11908,"Currencies":11909,"memcache":11910,"Flight":11911,"ĠRcm":11912,"ĠSoap":11913,"arations":11914,"returned":11915,"KeyName":11916,"Variation":11917,"WAY":11918,"()).<":11919,"OLLOW":11920,"Stdlib":11921,"ĠQuestion":11922,"Ġstop":11923,"istor":11924,"sandbox":11925,"reward":11926,"35":11927,"ring":11928,"SENT":11929,"currencyCode":11930,"Ġosc":11931,"ADODB":11932,"dim":11933,"ĠUPLOAD":11934,"urnament":11935,"ĠtestIt":11936,"Ġiconv":11937,"ĠRedirectResponse":11938,"CUSTOMER":11939,"Ġsimplexml":11940,"controllerName":11941,"friend":11942,"ResultInterface":11943,"quid":11944,"REC":11945,"ighborho":11946,"oman":11947,"voice":11948,"movie":11949,"waitFor":11950,"lastInsertId":11951,"emailAddress":11952,"Unexpected":11953,"hasOneof":11954,"ServerRequest":11955,"portico":11956,"HAL":11957,"Ko":11958,"ĠIM":11959,"fromJson":11960,"jsonData":11961,"\\{":11962,"miss":11963,"sugar":11964,"CURRENT":11965,"addClass":11966,"phpDoc":11967,"Ou":11968,"ĠDataType":11969,"ĠgetPost":11970,"EXPI":11971,"tisfi":11972,"ciphertext":11973,"none":11974,"Tw":11975,"_::":11976,"ollie":11977,"Propag":11978,"ĠBuffer":11979,"eventType":11980,"ilex":11981,"isPublic":11982,"());":11983,"Enterprise":11984,"Authorize":11985,"ĠEmpty":11986,"Ban":11987,"ahead":11988,"userlist":11989,"fox":11990,"Programm":11991,"Palette":11992,"sPath":11993,"overrides":11994,"patser":11995,"rates":11996,"SCHEMA":11997,"Ġorg":11998,"Deferred":11999,"Recipients":12000,"popup":12001,"Macro":12002,"SQLI":12003,"national":12004,"Verbose":12005,"Hasher":12006,"Expander":12007,"circle":12008,"station":12009,"DataCollector":12010,"CodeSample":12011,"ĠLib":12012,"hits":12013,"Ġauthorize":12014,"Ns":12015,"ĠWebpatser":12016,"imagesize":12017,"Crop":12018,"stristr":12019,"Unauthorized":12020,"propertyPath":12021,"spacing":12022,"SAVE":12023,"additionalType":12024,"dete":12025,"pcntl":12026,"tooltip":12027,"don":12028,"Merged":12029,"Ġcontract":12030,"createClient":12031,"Coll":12032,"uz":12033,"clip":12034,"Retrieve":12035,"ĠSort":12036,"ograph":12037,"Examples":12038,"Ġimagecreate":12039,"ĠFinder":12040,"HA":12041,"UserName":12042,"Deserializ":12043,"ĠDispatcher":12044,"getCategory":12045,"TestBase":12046,"Ġescapeshellarg":12047,"oner":12048,"ĠgetKind":12049,"todo":12050,"violation":12051,"Within":12052,"manufacturer":12053,"Searchable":12054,"glue":12055,"sameAs":12056,"setDate":12057,"ĠprivateGet":12058,"ypes":12059,"attack":12060,"getNumber":12061,"ĠLoad":12062,"RequestHandler":12063,"ĠBus":12064,"Ġimagecolorallocate":12065,"formFactory":12066,"MAC":12067,"Diadoc":12068,"redirectToRoute":12069,"Ice":12070,"Ġ=$":12071,"tokenizer":12072,"inality":12073,"Ġen":12074,"appid":12075,"ToBe":12076,"compati":12077,"defaultOptions":12078,"Cypher":12079,"LER":12080,"ĠgetIndex":12081,"ErrorResponse":12082,"Flat":12083,"localization":12084,"INE":12085,"ĠNotFoundException":12086,"Players":12087,"ĠSwift":12088,"notifyUrl":12089,"ĠgetProperty":12090,"written":12091,"ShippingAddress":12092,"ĠCodeception":12093,"OrderInterface":12094,"apiException":12095,"Issues":12096,"ĠPapaya":12097,"Attempt":12098,"Ve":12099,"uk":12100,"leases":12101,"edart":12102,"MEMBER":12103,"ActionInterface":12104,"Wp":12105,"Deposit":12106,"passwd":12107,"Quotes":12108,"Recurring":12109,"ĠSc":12110,"xmlUnserialize":12111,"placement":12112,"DeniedException":12113,"Ele":12114,"writeTo":12115,"checks":12116,"FOLLOW":12117,"ĠgetHeader":12118,"edIn":12119,"ĠMysql":12120,"Adminhtml":12121,"Visit":12122,"Bottom":12123,"critical":12124,"ossi":12125,"havo":12126,"TOO":12127,"snmp":12128,"Cycle":12129,"classMap":12130,"Documentation":12131,"ĠClassMetadata":12132,"sanitized":12133,"atid":12134,"WIDTH":12135,"Cards":12136,"counting":12137,"specific":12138,"RT":12139,"ASK":12140,"ĠezcWebdav":12141,"ĠAbstractModel":12142,"BUT":12143,"RendererInterface":12144,"ĠgetSchemaUrl":12145,"interest":12146,"ĠRequire":12147,"getMockFor":12148,"(@$":12149,"COLLECTION":12150,"Enso":12151,"urlAlias":12152,"PEG":12153,"bay":12154,"leaf":12155,"ĠGithub":12156,"ĠOne":12157,"Sessions":12158,"getDisplay":12159,"ĠExample":12160,"Touch":12161,"(),$":12162,"ĠCondition":12163,"ĠProvider":12164,"Compress":12165,"fetched":12166,"CodingStandard":12167,"Div":12168,"maker":12169,"Articles":12170,"golia":12171,"Normalization":12172,"assertThat":12173,"lineItem":12174,"iseconds":12175,"IpAddress":12176,"billingAddress":12177,"ĠAg":12178,"sensitive":12179,"ApiResponse":12180,"confirmation":12181,"NotFoundHttpException":12182,"SN":12183,"fingerprint":12184,"Reviews":12185,"ĠEnhavo":12186,"AVAI":12187,"entityTypeManager":12188,"blacklist":12189,"mimetype":12190,"unknownFieldSet":12191,"Amqp":12192,"bel":12193,"Compatible":12194,"Rich":12195,"qrt":12196,")){":12197,"ixie":12198,"zoom":12199,"ĠgetResult":12200,"iqdev":12201,"CheckerInterface":12202,"Coded":12203,"Good":12204,"ServiceMock":12205,"phid":12206,"Positive":12207,"alternative":12208,"Spa":12209,"cod":12210,"mini":12211,"localName":12212,"signup":12213,"ĠFormStateInterface":12214,"github":12215,"Ġdeserialize":12216,"AbstractClass":12217,"arc":12218,"objectState":12219,"ValidationError":12220,"ĠStatement":12221,"digits":12222,"istrar":12223,"Facebook":12224,"ĠgetEvent":12225,"Manual":12226,"Tech":12227,"aRow":12228,"Ġsubmit":12229,"Regular":12230,"Sugg":12231,"newQuery":12232,"anga":12233,"ĠCan":12234,"mdb":12235,"getRecord":12236,"Challenge":12237,"corded":12238,"grav":12239,"Ġ++;<":12240,"Friendly":12241,"dados":12242,"Shopping":12243,"ĠAttach":12244,"between":12245,"ĠCer":12246,"ĠfindAll":12247,"Yandex":12248,"dOrder":12249,"verified":12250,"ĠsetLast":12251,"Phar":12252,"instanti":12253,"staff":12254,"ĠLaravelEnso":12255,"ĠPRE":12256,"OrNull":12257,"Swift":12258,"Rewrite":12259,"Docman":12260,"Passport":12261,"Mixin":12262,"Nr":12263,"instruction":12264,"fax":12265,"Checksum":12266,"through":12267,"addAction":12268,"quoteTransfer":12269,"Slack":12270,"Recommend":12271,"preferred":12272,"herited":12273,"skipped":12274,"XP":12275,"ials":12276,"Inc":12277,"raintree":12278,"MINU":12279,"signee":12280,"Future":12281,"Collect":12282,"Classification":12283,"ĠIss":12284,"LUG":12285,"imate":12286,"Destroy":12287,"Streams":12288,"Pairs":12289,"handles":12290,"ĠWorkflow":12291,"2018":12292,"GeneralUtility":12293,"sValue":12294,"tiger":12295,"ĠIvory":12296,"Ġperform":12297,"utation":12298,"ĠtestInvalid":12299,"parsedFrame":12300,"belongsToMany":12301,"ĠBy":12302,"fieldPath":12303,"deny":12304,"slashit":12305,"Who":12306,"reservation":12307,"Datagrid":12308,"Boo":12309,"Financial":12310,"importer":12311,"ĠRemove":12312,"FG":12313,"ĠPDF":12314,"ĠsetDate":12315,"boost":12316,"PARENTHESIS":12317,"measure":12318,"drupalGet":12319,"TRANSACTION":12320,"bcc":12321,"etary":12322,"slave":12323,"Prepared":12324,">;?><?":12325,"Invocation":12326,"ĠtestDelete":12327,"indexed":12328,"65":12329,"Spo":12330,"Club":12331,"ĠID":12332,"dx":12333,"determine":12334,"ĠRow":12335,"multisite":12336,"ĠgetNode":12337,"tested":12338,"childNode":12339,"AUTHORIZ":12340,"DcGeneral":12341,"kable":12342,"alized":12343,"FileLoader":12344,"elmio":12345,"ĠsetKind":12346,"textarea":12347,"customField":12348,"FFCSTRT":12349,"Pod":12350,"selfLink":12351,"NED":12352,"analytics":12353,"Kite":12354,"Nonce":12355,"kins":12356,"appName":12357,"Teams":12358,"hd":12359,"manual":12360,"Integ":12361,"abet":12362,"Containers":12363,"setModel":12364,"Traverser":12365,"getTraceAsString":12366,"'>);<":12367,"sb":12368,"ĠFixture":12369,"VARS":12370,"orientation":12371,"Wrong":12372,"removeElement":12373,"palette":12374,"BID":12375,"fread":12376,"iao":12377,"Directives":12378,"Latitude":12379,"rendering":12380,"Responder":12381,"Low":12382,"getCustom":12383,"LessThan":12384,"ĠAuthorization":12385,"Ġmodify":12386,"enclosure":12387,"anonymous":12388,"Parents":12389,"Ġbehaviors":12390,"Keep":12391,"semValue":12392,"FQ":12393,"exam":12394,"ĠgetFilter":12395,"kses":12396,"PROJECT":12397,"Small":12398,"ĠgetContext":12399,"ireplace":12400,"ĠNO":12401,"templatePath":12402,"wk":12403,"Ġpublish":12404,"OBJ":12405,"serializedSize":12406,"ĠDenormalizer":12407,"TwoFactor":12408,"PY":12409,"KI":12410,"ima":12411,"BaseUrl":12412,"Ġ<>":12413,"aves":12414,"getClassMetadata":12415,"season":12416,"ĠSocial":12417,"DataModel":12418,"ourls":12419,"ĠsetOptions":12420,"ĠNelmio":12421,"SearchResult":12422,"ĠIdentifier":12423,"logging":12424,"ĠWind":12425,"snake":12426,"seg":12427,"iValue":12428,"ĠBrick":12429,"CIMAL":12430,"schemas":12431,"unix":12432,"ĠgetAttributes":12433,"resourceName":12434,"Dbal":12435,"ĠRequestInterface":12436,"BRACKET":12437,"ght":12438,"assertGreaterThan":12439,"redirectUrl":12440,"ku":12441,"coords":12442,"preferences":12443,"Paid":12444,"([[<":12445,"Tube":12446,"Handles":12447,"_)":12448,"Known":12449,"enames":12450,"depends":12451,"math":12452,"CommunityAlliance":12453,"ĠgetColumn":12454,"Gender":12455,"Gdata":12456,"gif":12457,"Loading":12458,"Autoloader":12459,"newLine":12460,"ĠUnsupported":12461,"People":12462,"Ġboolval":12463,"olarium":12464,"publication":12465,"era":12466,"($__":12467,"SELF":12468,"OTLdata":12469,"44":12470,"Bonus":12471,"eds":12472,"toPath":12473,"createNew":12474,"maining":12475,"ProgressBar":12476,"ĠContaoCommunityAlliance":12477,"ĠBX":12478,"sortOrder":12479,")?":12480,"IAL":12481,"ented":12482,"RelatedBy":12483,"associate":12484,"innerMessage":12485,"70":12486,"ippets":12487,"experi":12488,"vehicle":12489,"Titles":12490,"ĠAedart":12491,"DC":12492,"Rabbit":12493,"ranges":12494,"mises":12495,"Longitude":12496,"CANCEL":12497,"ĠTarget":12498,"Guesser":12499,"cust":12500,"Breadcrumbs":12501,"cont":12502,"CurrencyCode":12503,"Books":12504,"CacheItem":12505,"ĠsetMessage":12506,"Developer":12507,"Indices":12508,"anstalk":12509,"potentialAction":12510,"whitespace":12511,"Ġreaddir":12512,"ĠChange":12513,"MapperInterface":12514,"Since":12515,"ĠExecu":12516,"ParsedBody":12517,"aut":12518,"fileSize":12519,"RequestHandlerInterface":12520,"ĠRaw":12521,"life":12522,"Pure":12523,"UDB":12524,"ARK":12525,"Slice":12526,"ĠDispatch":12527,"vendorDir":12528,"getDB":12529,"setHelp":12530,"Experi":12531,"Ġcompare":12532,"ĠCho":12533,"blockId":12534,"dumper":12535,"sFor":12536,"ArgumentException":12537,"ĠBoolean":12538,"ĠSmart":12539,"addCssClass":12540,"objPHPExcel":12541,"getTags":12542,"Adresse":12543,"enses":12544,"regist":12545,"lt":12546,"Salt":12547,"ServiceLocatorInterface":12548,"spot":12549,"ĠgetMetadata":12550,"ĠBot":12551,"spell":12552,"RGB":12553,"para":12554,"Ġ!(":12555,"XMLNamespace":12556,"())));<":12557,"educational":12558,"ategor":12559,"Agreement":12560,"fqsen":12561,"NotIn":12562,"yen":12563,"Ġu":12564,"hashed":12565,"rush":12566,"IV":12567,"ĠAL":12568,"Lst":12569,"shadow":12570,"calling":12571,"regions":12572,"rottle":12573,"getJson":12574,"Platforms":12575,"ĠgetConnection":12576,"addViolation":12577,"endant":12578,"buyer":12579,"ĠSERVICE":12580,"Diagnos":12581,"Lng":12582,"ault":12583,"updater":12584,"ViewModel":12585,"wave":12586,"getFHIRXMLNamespace":12587,"UserModel":12588,"Ġcubrid":12589,"ĠParagonIE":12590,"qui":12591,"ĠsetContent":12592,"foot":12593,"Supports":12594,"FONT":12595,"entify":12596,"pseudo":12597,"errMsg":12598,"baseUri":12599,"rootPath":12600,">:$":12601,"getDefaultValue":12602,"Cn":12603,"getRelated":12604,"ProductAbstract":12605,"teams":12606,"Datasource":12607,"Radio":12608,"Retriever":12609,"addFile":12610,"prefs":12611,"ĠHTMLPurifier":12612,"DataFixtures":12613,"ONENT":12614,"COLON":12615,"wildcard":12616,"Ġ).<":12617,"DocGenerator":12618,"ĠEN":12619,"ĠStu":12620,"firewall":12621,"toQuery":12622,"getFiles":12623,"creat":12624,"METADATA":12625,"ĠInternal":12626,"isted":12627,"isSuccess":12628,"Sortable":12629,"uploads":12630,"digitalgroup":12631,"adjustment":12632,"IOD":12633,"Ware":12634,"oTemplate":12635,"turn":12636,"getIcon":12637,"chex":12638,"estors":12639,"UniqueId":12640,"unicode":12641,"optionsResolver":12642,"memcached":12643,"Cfg":12644,"isStatic":12645,"ici":12646,"projection":12647,"clientOptions":12648,"BasePath":12649,"ĠSales":12650,"ĠCURLINFO":12651,"ybrid":12652,"COR":12653,"Nom":12654,"ĠSITE":12655,"disconnect":12656,"Behaviour":12657,"istics":12658,"ĠRail":12659,"deleteAll":12660,"PRICE":12661,"EventHandler":12662,"notifiable":12663,"RuleDocGenerator":12664,"mocked":12665,"delim":12666,"Birth":12667,"Lite":12668,"Sell":12669,"Serv":12670,"Numero":12671,"Programmes":12672,"setFrom":12673,"addFlash":12674,"COUR":12675,"ased":12676,"cacheItem":12677,"policies":12678,"Ġhook":12679,"Ġrest":12680,"ĠCLI":12681,"Cond":12682,"Dependent":12683,"Ġlc":12684,"Sanitizer":12685,"ĠRandom":12686,"LIKE":12687,"orten":12688,"ĠNav":12689,"serviceProvider":12690,"Ġsplit":12691,"propName":12692,"andReturns":12693,"RequestData":12694,"ĠTick":12695,"Ġluya":12696,"UserRole":12697,"imageUrl":12698,"Spaces":12699,"Lesson":12700,"ĠIssue":12701,"Due":12702,"fleet":12703,"getHttpClient":12704,"clock":12705,"ĠgetSize":12706,"chemes":12707,"Speech":12708,"Ordered":12709,"CEN":12710,"TIMESTAMP":12711,"Included":12712,"registerJs":12713,"CollectionTransfer":12714,"CRET":12715,"progressBar":12716,"audience":12717,"ĠEvents":12718,"advanced":12719,"getLog":12720,"getVariable":12721,"defer":12722,"RequestStack":12723,"cachePath":12724,"Libraries":12725,"DoesNotExist":12726,"ĠMer":12727,"ObjectStorage":12728,"Imagine":12729,"getOriginal":12730,"Ġgetcwd":12731,"publishes":12732,"effect":12733,"Ġrename":12734,"Vertex":12735,"ĠCoordinate":12736,"DataTransformer":12737,"tribe":12738,"contentObjectAttribute":12739,"Configurable":12740,"Ġensure":12741,"uploadedFile":12742,"Lin":12743,"endpoints":12744,"Ma":12745,"Ġassign":12746,"setVariable":12747,"imbra":12748,"rowData":12749,"ĠsetUrl":12750,"toJson":12751,"addons":12752,"Ġmktime":12753,"GI":12754,"jump":12755,"igible":12756,"(?\\":12757,"Minute":12758,"league":12759,"Pet":12760,"UInt":12761,"Fieldset":12762,"ĠLin":12763,"crypter":12764,"httpHeader":12765,"Shortcode":12766,"isNull":12767,"fanta":12768,"urchas":12769,"sessions":12770,"CONNECTION":12771,"Utf":12772,"Menus":12773,"andwidth":12774,"cdn":12775,"qti":12776,"NotExists":12777,"filiate":12778,"hl":12779,"setView":12780,"ncmp":12781,"strcmp":12782,"oot":12783,"ampl":12784,"ĠContentType":12785,"REPLACE":12786,"Preferences":12787,"StrategyInterface":12788,"DimensionSpace":12789,"eph":12790,"ĠIS":12791,"developer":12792,"setParam":12793,"ĠgetRoute":12794,"ĠInvoice":12795,"contextid":12796,"GIT":12797,"iId":12798,"addRule":12799,"luf":12800,"Prefixes":12801,"Ġbackup":12802,"Cases":12803,"ando":12804,"featured":12805,"Nick":12806,"pulate":12807,"ĠtestUpdate":12808,"ĠVERSION":12809,"openAPINullables":12810,"identicalTo":12811,"ĠgetUn":12812,"subjectOf":12813,"ĠPhug":12814,"ulner":12815,"spy":12816,"tmpstr":12817,"exploded":12818,"ĠgetCustom":12819,"terminalType":12820,"URATION":12821,"CacheInterface":12822,"randomElement":12823,">--$":12824,"remo":12825,"ĠfromArray":12826,"Placeholders":12827,"mediaType":12828,"aran":12829,"hasMethod":12830,"checkEnum":12831,"StreamId":12832,"90":12833,"AGER":12834,"DU":12835,"gal":12836,"HttpResponse":12837,"disambiguatingDescription":12838,"AssetBundle":12839,"Fails":12840,"expanded":12841,"Ġlcfirst":12842,"Ġz":12843,"profiles":12844,"acion":12845,"Nette":12846,"dB":12847,"getPro":12848,"getQueryBuilder":12849,"Seq":12850,"CHED":12851,"cotone":12852,"cx":12853,"Ġtrigger":12854,"arios":12855,"THAN":12856,"ement":12857,"ĠPER":12858,"TTL":12859,"decrypted":12860,"Ġ((!":12861,"Deep":12862,"ĠFacebook":12863,"ĠLay":12864,"Peri":12865,"Observable":12866,"PROTOCOL":12867,"BR":12868,"etric":12869,"Indexed":12870,"prodCode":12871,"Cnt":12872,"BuilderFactory":12873,"evidence":12874,"ĠMS":12875,"alization":12876,"withErrors":12877,"pw":12878,"CURUSER":12879,"GREEN":12880,"TON":12881,"reat":12882,"getV":12883,"terminalInfo":12884,"ĠJW":12885,"getSign":12886,"Saver":12887,"LAT":12888,"Applied":12889,"headline":12890,"LOCAL":12891,"activities":12892,"wards":12893,"Human":12894,"closing":12895,"Crumb":12896,"WIN":12897,"ĠgetView":12898,"Resize":12899,"subres":12900,"Vide":12901,"Regx":12902,"ĠRectorPrefix":12903,"grp":12904,"ĠPublic":12905,"ResponseData":12906,"layers":12907,"ĠWindwalker":12908,"ĠsetSource":12909,"rn":12910,"ĠOrm":12911,"Codeable":12912,"mitted":12913,"Roman":12914,"SL":12915,"needEncrypt":12916,"endsWith":12917,"rpg":12918,"yl":12919,"RECTION":12920,"ĠEPSG":12921,"ĠTwigFunction":12922,"EventLoop":12923,"Hostname":12924,"recv":12925,"Invitation":12926,"drivers":12927,"None":12928,"Ġraw":12929,"ism":12930,"ĠFactoryInterface":12931,"bk":12932,"ĠNip":12933,"Changeset":12934,"posix":12935,"swaggerTypes":12936,"kip":12937,"ĠSolarium":12938,"ancestor":12939,"restriction":12940,"Mul":12941,"Ġorder":12942,"another":12943,"gui":12944,"ĠindexAction":12945,"ĠChoice":12946,"CodeableConcept":12947,";?>":12948,"cause":12949,"elcome":12950,"Pad":12951,"rv":12952,">)][<":12953,"addMessage":12954,"ParentId":12955,"ĠDump":12956,"TokenParser":12957,"voucher":12958,"pts":12959,"ROUND":12960,"CSRF":12961,"suggested":12962,").$":12963,"SoftDeletes":12964,"Twilio":12965,"sco":12966,"rawl":12967,"IENT":12968,"oConfig":12969,"tv":12970,"vable":12971,"valor":12972,"MODIFIER":12973,"Piece":12974,"Der":12975,"Anc":12976,"ĠPHPCoord":12977,"BUI":12978,"Bundles":12979,"setVar":12980,"Ġ]->":12981,"Tip":12982,"mess":12983,"updateTime":12984,"UTC":12985,"BigEndian":12986,"STRICT":12987,"fro":12988,"ĠsetE":12989,"NGX":12990,"ĠTen":12991,"opacity":12992,"jet":12993,"indentation":12994,"mdl":12995,"gz":12996,"nid":12997,"TypeHint":12998,"readonly":12999,"Installation":13000,"?->":13001,">),$":13002,"ĠgetTime":13003,"saveXML":13004,"Expiry":13005,"mption":13006,"getHandler":13007,"postalCode":13008,"jpeg":13009,"Aggregator":13010,"SMTP":13011,"conflict":13012,"getSql":13013,"ĠgetSession":13014,"she":13015,"createUser":13016,"HOUR":13017,"gines":13018,"pkey":13019,"outube":13020,"Hide":13021,"tendance":13022,"BIGINTEGER":13023,"ĠTy":13024,"intro":13025,"Mag":13026,"dirty":13027,"oat":13028,"ĠYandex":13029,"combined":13030,"Seguro":13031,"ĠOrchestra":13032,"retries":13033,"Invite":13034,">)==<":13035,"trimmed":13036,"dependent":13037,">&$":13038,"Ġtep":13039,"acting":13040,"ĠFake":13041,"cacheFile":13042,"lyCoded":13043,"ĠKnp":13044,"ĠStub":13045,"lyCodedSoftware":13046,"Uses":13047,"Incomplete":13048,"IteratorAggregate":13049,"utr":13050,"getShortName":13051,"votes":13052,"MyAdmin":13053,"HALF":13054,"BOT":13055,"Alternative":13056,"Ġmark":13057,"ĠgetV":13058,"UserService":13059,"lastError":13060,"Gl":13061,"ste":13062,"likes":13063,"creative":13064,"Mand":13065,"Ġlogout":13066,"createUrl":13067,"andFilter":13068,"BT":13069,"CleanRegex":13070,"ATEG":13071,"BaseType":13072,"Ġ,$":13073,"ForeignKeys":13074,"charts":13075,"Boundary":13076,"Thing":13077,"ĠJText":13078,"petition":13079,"ffective":13080,"Ġcomment":13081,"iltin":13082,"ĠAnal":13083,"Unicode":13084,"ThrowException":13085,"MULTI":13086,"Uint":13087,"ĠgetLanguage":13088,"blank":13089,"setParameters":13090,"ProtocolVersion":13091,"ĠContainerInterface":13092,"BOTH":13093,"getUserId":13094,"BasedOn":13095,"setVersion":13096,"ĠAf":13097,"azada":13098,"candidates":13099,"Fare":13100,"DOMNode":13101,"igwe":13102,"EntityName":13103,"VERITY":13104,"Vision":13105,"ExternalId":13106,"Principal":13107,"igweze":13108,"resourceClass":13109,"taoQti":13110,"ĠEncore":13111,"getServiceLocator":13112,"tagged":13113,"ĠEr":13114,"hints":13115,"mybb":13116,"ĠTextType":13117,"ApiHelper":13118,"ighborhoods":13119,"fetchOne":13120,"Ġcommit":13121,"AMQP":13122,"hos":13123,"closedir":13124,"()],":13125,"COMPAT":13126,"INSTALL":13127,"setAction":13128,"Delegate":13129,"paypal":13130,"ĠErrorCode":13131,"tk":13132,"getAccount":13133,"setDefinition":13134,"signer":13135,"WAIT":13136,"IdList":13137,"Ġrefresh":13138,"ĠgetTag":13139,"ĠTRegx":13140,"JavaScript":13141,"setTimezone":13142,"gorithms":13143,"getArrayCopy":13144,">]($":13145,"Acc":13146,"roleName":13147,"ĠFluent":13148,"CAS":13149,"https":13150,">))),<":13151,"setAttributes":13152,"ĠInn":13153,"rant":13154,"ĠMak":13155,"So":13156,"symfony":13157,"wall":13158,"getOwner":13159,"setLast":13160,"PhpVersion":13161,"You":13162,"addProperty":13163,"trad":13164,"getSome":13165,"heanstalk":13166,"responseHeaders":13167,"emul":13168,"rights":13169,"Ġgu":13170,"DataImport":13171,"eventId":13172,"ĠNu":13173,"PROFILE":13174,"ĠWorker":13175,"ĠLim":13176,"beat":13177,"CanBe":13178,"zy":13179,"ALPH":13180,"Possible":13181,"starting":13182,"rated":13183,"parentClass":13184,"ToFile":13185,"rline":13186,"Ġ};<":13187,"128":13188,"Misc":13189,"ListInterface":13190,"ĠGetCandy":13191,"aggregateRating":13192,"journal":13193,"ĠIdentity":13194,"shard":13195,"imagedestroy":13196,"ĠPhpBench":13197,"iring":13198,"ĠSeat":13199,"Ġer":13200,"Ġfix":13201,"Ġ(@$":13202,"tmpFile":13203,"ĠArrays":13204,"ĠCalendar":13205,"trusted":13206,"ĠgetFields":13207,"ĠgetSettings":13208,"Mutation":13209,"FTP":13210,"amaz":13211,"SetFont":13212,"deliver":13213,"ĠLexer":13214,"Executed":13215,"mediate":13216,"WO":13217,"ĠCron":13218,"_($":13219,"esoft":13220,"ĠSection":13221,"ydration":13222,"getTransaction":13223,"applied":13224,"Settlement":13225,"Outcome":13226,"89":13227,"()]<":13228,"getProvider":13229,"izy":13230,"schemaName":13231,"eZDebug":13232,"ĠgetGroup":13233,"Compat":13234,"LEX":13235,"locationService":13236,"getLength":13237,"demo":13238,"Synchron":13239,"SECOND":13240,"MPDF":13241,"bizContent":13242,"getEnvironment":13243,"uldNot":13244,"puid":13245,"assem":13246,"DRA":13247,"SLUG":13248,"arrow":13249,"invalidate":13250,"))))":13251,"confirmed":13252,"Fit":13253,"SUM":13254,"devices":13255,"ĠFolder":13256,"Bel":13257,"RC":13258,"createNamed":13259,"barcode":13260,"Speak":13261,"iser":13262,"cop":13263,"Too":13264,"uname":13265,"ĠsetRe":13266,"Templating":13267,"recipe":13268,"java":13269,"Propagation":13270,"objectType":13271,"Marshaller":13272,"BYTES":13273,"gmt":13274,"Ġtemplate":13275,"Formula":13276,"dbConnection":13277,"ĠChain":13278,"ingMode":13279,"ĠSup":13280,"Calling":13281,"PROP":13282,"individual":13283,"Compiled":13284,"ĠGenerate":13285,"defConsts":13286,"Approved":13287,"ĠgetNextPageToken":13288,",[<":13289,"dg":13290,"erson":13291,"ĠPdf":13292,"AppId":13293,"MediaBundle":13294,")],<":13295,"Curve":13296,"ConverterInterface":13297,"shoppingList":13298,"uploader":13299,"bee":13300,"RSA":13301,"wrong":13302,"dead":13303,"assessment":13304,"addText":13305,"ĠAbstractController":13306,"ENTRY":13307,"aResult":13308,"mx":13309,"ĠUploadedFile":13310,"!=":13311,"ĠRemote":13312,"Three":13313,"PackageInterface":13314,"getPosition":13315,"Leaf":13316,"[\\":13317,"ĠgetUri":13318,"PageId":13319,"Cacheable":13320,"ssa":13321,"HasMany":13322,"comma":13323,"managed":13324,"dont":13325,"ĠGateway":13326,"75":13327,"Votes":13328,"CHARACT":13329,"Flex":13330,"Ġ~":13331,"SiteAccess":13332,"ĠSimpleXMLElement":13333,"databases":13334,"sBy":13335,"ili":13336,"Lex":13337,"RSS":13338,"kk":13339,"arvest":13340,"ĠSchedule":13341,"EventType":13342,"ĠIp":13343,"Activities":13344,"ĠHttpClient":13345,"ĠAsyncAws":13346,"ĠMODE":13347,"ĠsetNextPageToken":13348,"lit":13349,"DataTables":13350,"findFirst":13351,"ampled":13352,"Downloader":13353,"ĠArch":13354,"RouterInterface":13355,"built":13356,"SEND":13357,"TestSuite":13358,"ANDARD":13359,"authenticator":13360,"MakeCommand":13361,"aItem":13362,"tant":13363,"marketId":13364,"PRIMARY":13365,"getDecl":13366,"textInput":13367,"Ġunlink":13368,"objectName":13369,"transformation":13370,"LOCALE":13371,"getHeaderLine":13372,"Bid":13373,"fx":13374,"FileObject":13375,"ĠRx":13376,"ĠDecimal":13377,"ĠsetKey":13378,"Semantic":13379,"operands":13380,"getSomeMessage":13381,"SECRET":13382,"startCall":13383,"Impression":13384,"Ari":13385,"Dest":13386,"dar":13387,"TECTED":13388,"ĠErrorException":13389,"three":13390,"Adapters":13391,"Ear":13392,"ĠgetServer":13393,"ĠgetDisplayName":13394,"keyType":13395,"Answers":13396,"DECIMAL":13397,"ĠConvert":13398,"SHOW":13399,"imagecopy":13400,"ĠOcto":13401,"ĠReader":13402,"Queued":13403,"KEYWORD":13404,"ĠMETHOD":13405,"hort":13406,"addUsing":13407,"currPos":13408,"DL":13409,"ien":13410,"isSubmitted":13411,"responseShared":13412,"ĠEngine":13413,"ummary":13414,"Storm":13415,"organisation":13416,"land":13417,"applic":13418,"ParseException":13419,"ĠActiveCollab":13420,"executeCommand":13421,"arity":13422,"lineNumber":13423,"Quoted":13424,"hy":13425,"RuleDefinition":13426,"Rain":13427,"junction":13428,"Ġweb":13429,"Instruction":13430,"CIAL":13431,"meth":13432,"EST":13433,"clientSecret":13434,"Passed":13435,"puty":13436,"Ġchecked":13437,"Actual":13438,"hierarchy":13439,"Ġstrstr":13440,"NOW":13441,"poly":13442,"Replacement":13443,"progText":13444,"steam":13445,"getContentType":13446,"ĠInnmind":13447,"49":13448,"kafka":13449,"Stores":13450,"calInterface":13451,"reqData":13452,"Fk":13453,"roken":13454,"userGroup":13455,"UpdateMask":13456,"Ġpapi":13457,"FetchMode":13458,"LOWER":13459,"getSelect":13460,"Pull":13461,"llegal":13462,"Ġblock":13463,"asti":13464,"ĠSmarty":13465,"tinfo":13466,"Dirty":13467,"getMockForAbstractClass":13468,"ĠRetailCrm":13469,"setItem":13470,"DELETED":13471,"NotSupportedException":13472,"ĠHome":13473,"CONDITION":13474,"Warnings":13475,"ĠSEEK":13476,"getAuthor":13477,"Restricted":13478,"Ġinvalid":13479,"misc":13480,"Cake":13481,"addIndex":13482,"Ġ?><?=$":13483,"Debugger":13484,"SYNC":13485,"Ġopendir":13486,"qualified":13487,"hausted":13488,"PassInterface":13489,"OWN":13490,"sex":13491,"getSingle":13492,"guild":13493,"Invoker":13494,"scaling":13495,"DAV":13496,"dan":13497,"provide":13498,"hasErrors":13499,"andFilterWhere":13500,"Ġ[]];<":13501,"BaseModel":13502,"ĠLightSaml":13503,"iche":13504,"Forge":13505,"baseurl":13506,"BILITY":13507,"HAS":13508,"asetype":13509,"ĠgetPassword":13510,"ĠExceptions":13511,"hanced":13512,"keneo":13513,"ĠVin":13514,"CategoryId":13515,"umes":13516,"notices":13517,"getErrorMessage":13518,"ĠRecursiveIteratorIterator":13519,"isSuper":13520,"ĠgetCommand":13521,"ĠCOMP":13522,"STU":13523,"ActiveQuery":13524,"addUsingAlias":13525,"lhs":13526,"ĠSho":13527,"ĠOP":13528,"effective":13529,"getAvailable":13530,"TableSeeder":13531,"Speed":13532,"Ġevent":13533,"ĠConst":13534,"blockType":13535,"FACT":13536,"ASSET":13537,"Ġhiqdev":13538,"ĠElgg":13539,"Balancer":13540,"getPayload":13541,"MEN":13542,"Ġadditional":13543,"webspace":13544,"setLength":13545,"FieldList":13546,"Customers":13547,"ĠsetState":13548,"TextNode":13549,"multiplier":13550,"ĠRegex":13551,"paper":13552,"taskId":13553,"meeting":13554,"Mu":13555,"Ġyy":13556,"spa":13557,"ModuleName":13558,"unsignedInteger":13559,"processes":13560,"Suc":13561,"oler":13562,"places":13563,"nome":13564,"Phake":13565,"ĠTerm":13566,"INSTANCE":13567,"ForUser":13568,"getScheme":13569,"ĠInvalidConfigException":13570,"affectedRows":13571,"Sites":13572,"scores":13573,"listItem":13574,"Themes":13575,"REASON":13576,"getid":13577,"quer":13578,"ExceptionHandler":13579,"phase":13580,"Turn":13581,"withInput":13582,"ĠModelInterface":13583,"fillment":13584,"VITY":13585,"GREATER":13586,"Ġdetect":13587,"ĠNova":13588,"apiParas":13589,"vironments":13590,"AgentSIB":13591,"OPERATION":13592,"getPermission":13593,"setSource":13594,"achet":13595,"svc":13596,"trail":13597,"Fld":13598,"ĠAcme":13599,"robots":13600,"PHPFHIRGenerated":13601,"ĠTIME":13602,"phrases":13603,"ĠLogLevel":13604,"SLASHES":13605,"nc":13606,"nat":13607,"artisan":13608,"Art":13609,"elementName":13610,"Hyper":13611,"ĠBi":13612,"connectionName":13613,"Sco":13614,"AbsolutePath":13615,"osC":13616,"Ġpopulate":13617,"versed":13618,"hard":13619,"sin":13620,"clZip":13621,"assertNotEquals":13622,">*$":13623,"Production":13624,"FieldData":13625,"ĠtestFind":13626,"kee":13627,"crl":13628,"PARTI":13629,"Repeat":13630,"Ignored":13631,"ĠPOData":13632,"ese":13633,"ĠHal":13634,"AppUI":13635,"Ġsuccess":13636,"ĠSabre":13637,"bonus":13638,"ĠARRAY":13639,"Third":13640,"HERE":13641,"ĠGedmo":13642,"Material":13643,"ĠtestLoad":13644,"ĠRange":13645,"targetDir":13646,"ICS":13647,"IamPolicy":13648,"Rollback":13649,"AVAILABLE":13650,"Ber":13651,"requirement":13652,"getSort":13653,"CURLY":13654,"cloned":13655,"ĠsetTarget":13656,"preference":13657,"CUSTOMREQUEST":13658,"ĠNews":13659,"Staff":13660,"jobId":13661,"venue":13662,"Rep":13663,"did":13664,"ĠACTION":13665,"CompilerPassInterface":13666,"Ren":13667,"fg":13668,"Ġcom":13669,"urname":13670,"Observers":13671,"FW":13672,"merg":13673,"EXISTS":13674,"setHeaders":13675,"FormView":13676,"glish":13677,"Trim":13678,"tableId":13679,"loadXML":13680,"ĠIP":13681,"samples":13682,"hasher":13683,"milestone":13684,"110":13685,"ĠWith":13686,"getPhp":13687,"IGIN":13688,"CNabu":13689,"FRAME":13690,"202305":13691,"mento":13692,"createDefault":13693,"pagesize":13694,"branches":13695,"userManager":13696,"arrData":13697,"VarDumper":13698,"naire":13699,"MID":13700,"ĠsetRequest":13701,"mongo":13702,"getFacade":13703,"ĠAI":13704,"ĠOPEN":13705,"ĠactionIndex":13706,"bundles":13707,"checkBool":13708,"soapCall":13709,"Hal":13710,"damage":13711,"ĠEndpoint":13712,"HasAttribute":13713,"Cid":13714,"elist":13715,"TaxRate":13716,"clib":13717,"ĠSample":13718,"ĠSimplyCodedSoftware":13719,"Incoming":13720,"ggable":13721,"posted":13722,"Four":13723,"ĠMOD":13724,"Shard":13725,"loadModel":13726,"Ġcc":13727,"ALIAS":13728,"House":13729,"bounds":13730,"Announcement":13731,"CMD":13732,"geometry":13733,"StartsWith":13734,"UserBy":13735,"FileType":13736,"isExhausted":13737,"ĠgetRaw":13738,"ĠPhpMyAdmin":13739,"Ġctype":13740,"keyValue":13741,"ToDelete":13742,"ĠMapping":13743,"contentRepository":13744,"Ġezp":13745,"ExitCode":13746,"Pic":13747,"Remember":13748,"fre":13749,"oTable":13750,"notFound":13751,"swaggerModelName":13752,"Prox":13753,"firstOrFail":13754,"visited":13755,"documentation":13756,"ĠTr":13757,"FieldNames":13758,"ĠTencentCloud":13759,"indexType":13760,"telephone":13761,"vector":13762,"ĠsetT":13763,"sponsor":13764,"crc":13765,"MiddlewareInterface":13766,"KIND":13767,"ĠMShop":13768,"AnInstanceOf":13769,"currentLine":13770,"apiUrl":13771,"ĠScheduler":13772,"reachable":13773,"unregister":13774,"getChannel":13775,"ĠStyle":13776,"Ġ{}":13777,"Versioned":13778,"streams":13779,"Skeleton":13780,"unic":13781,"produ":13782,"perpage":13783,"Classname":13784,"Adm":13785,"ĠlistInvalidProperties":13786,"activated":13787,"ARIO":13788,"manent":13789,"itect":13790,"ZONE":13791,"elapsed":13792,"plur":13793,"FullPath":13794,"office":13795,"stripslashes":13796,"mean":13797,"translatable":13798,"31":13799,"Ġcos":13800,"ĠgetAuth":13801,"fileinfo":13802,"dbots":13803,"VELO":13804,"GUID":13805,"TB":13806,"ifer":13807,"ĠGdbots":13808,"logical":13809,"CHILD":13810,"->__(<":13811,">=<":13812,"SRV":13813,"Zo":13814,"ParameterBag":13815,"ĠStandard":13816,"Compu":13817,"FM":13818,"QR":13819,"getDocComment":13820,"Dead":13821,"REP":13822,"Whitelist":13823,"getAdmin":13824,"FormElement":13825,"emitter":13826,"bases":13827,"orno":13828,"ĠArcanesoft":13829,"Ghost":13830,"StringHelper":13831,"readString":13832,"curly":13833,"ĠAliyun":13834,"glossary":13835,"Incre":13836,"ĠSocket":13837,"Outer":13838,"methodCall":13839,"ImageUrl":13840,"thru":13841,"Abstracts":13842,");$":13843,"Sourcing":13844,"Bg":13845,"oss":13846,"Ġtao":13847,"OfDay":13848,"Gapic":13849,"innerJoin":13850,"ambda":13851,"HQ":13852,"HEL":13853,"dic":13854,"createt":13855,"QueryResult":13856,"tmpDir":13857,"Expand":13858,"Launch":13859,"rootNamespace":13860,"gradient":13861,"DomainName":13862,"LanguageServer":13863,"errmsg":13864,"reflectionProperty":13865,"plex":13866,"ĠVi":13867,"Little":13868,"logFile":13869,"Timestamps":13870,"ModifyRequest":13871,"YN":13872,"ners":13873,"tg":13874,"addRoute":13875,"iteration":13876,"ĠModul":13877,"Meeting":13878,"Ln":13879,"ObjectInterface":13880,"addFieldTo":13881,"favor":13882,"ToRemove":13883,"ĠChat":13884,"fun":13885,"SDL":13886,"Lh":13887,"Promo":13888,"ĠCompilerPassInterface":13889,"=[<":13890,"Det":13891,"ENUM":13892,"TypeError":13893,"LEN":13894,"ĠWsdl":13895,"sqlData":13896,">])),<":13897,"lazyObjectState":13898,"itle":13899,"hashes":13900,"Clock":13901,"FFIX":13902,"kp":13903,"imag":13904,"readOnly":13905,"setPage":13906,"SEN":13907,"SEVERITY":13908,"Overrides":13909,"LAR":13910,"Tile":13911,"\\_":13912,"browse":13913,"till":13914,"getFlash":13915,"assertNotSame":13916,"CamelCase":13917,">)$":13918,"strcasecmp":13919,"ĠgetStart":13920,"dbi":13921,"Ġgen":13922,"ĠValid":13923,"tipo":13924,"ToAdd":13925,"poster":13926,"Correction":13927,"freq":13928,"MANAGER":13929,"Ġ<?<":13930,"unlock":13931,"Reporter":13932,"Ġsystem":13933,"(_(<":13934,"flattenSingleValue":13935,"ĠDevblocksPlatform":13936,"uninstall":13937,"coord":13938,"ĠImm":13939,"Ġcode":13940,"isDefault":13941,"ByUser":13942,"utures":13943,"Decision":13944,"queues":13945,"ephir":13946,"DomainException":13947,"Season":13948,"ĠLee":13949,"Risk":13950,"sUrl":13951,"mmetric":13952,"COMMA":13953,"uno":13954,"setCache":13955,"ĠFramework":13956,"TextDocument":13957,"profileId":13958,"SAPI":13959,"UMENT":13960,"Ġsign":13961,"addTag":13962,"tempDir":13963,"domainId":13964,"Chunks":13965,"getMain":13966,"tableOptions":13967,"ĠWriter":13968,"toPathValue":13969,"Mix":13970,"Pin":13971,"Managers":13972,"LegacySupport":13973,"istogram":13974,">|":13975,"CY":13976,"raper":13977,"Chapter":13978,"PropertyAccess":13979,"ĠPHPCR":13980,"CHAT":13981,"ULAR":13982,"Ġof":13983,"->{":13984,"setPassword":13985,"Director":13986,"Neo":13987,"accumul":13988,"UrlGeneratorInterface":13989,"ĠHook":13990,"ruecolor":13991,"relationAlias":13992,"DeviceType":13993,"suppress":13994,"ĠSop":13995,"Spacing":13996,"Ġpatch":13997,"ĠConstant":13998,"rity":13999,"OfType":14000,"PageInterface":14001,"WebService":14002,
[...]
